node {
  name: "global_step/Initializer/zeros"
  op: "Const"
  attr {
    key: "_class"
    value {
      list {
        s: "loc:@global_step"
      }
    }
  }
  attr {
    key: "_output_shapes"
    value {
      list {
        shape {
        }
      }
    }
  }
  attr {
    key: "dtype"
    value {
      type: DT_INT64
    }
  }
  attr {
    key: "value"
    value {
      tensor {
        dtype: DT_INT64
        tensor_shape {
        }
        int64_val: 0
      }
    }
  }
}
node {
  name: "global_step"
  op: "VariableV2"
  attr {
    key: "_class"
    value {
      list {
        s: "loc:@global_step"
      }
    }
  }
  attr {
    key: "_output_shapes"
    value {
      list {
        shape {
        }
      }
    }
  }
  attr {
    key: "container"
    value {
      s: ""
    }
  }
  attr {
    key: "dtype"
    value {
      type: DT_INT64
    }
  }
  attr {
    key: "shape"
    value {
      shape {
      }
    }
  }
  attr {
    key: "shared_name"
    value {
      s: ""
    }
  }
}
node {
  name: "global_step/Assign"
  op: "Assign"
  input: "global_step"
  input: "global_step/Initializer/zeros"
  attr {
    key: "T"
    value {
      type: DT_INT64
    }
  }
  attr {
    key: "_class"
    value {
      list {
        s: "loc:@global_step"
      }
    }
  }
  attr {
    key: "_output_shapes"
    value {
      list {
        shape {
        }
      }
    }
  }
  attr {
    key: "use_locking"
    value {
      b: true
    }
  }
  attr {
    key: "validate_shape"
    value {
      b: true
    }
  }
}
node {
  name: "global_step/read"
  op: "Identity"
  input: "global_step"
  attr {
    key: "T"
    value {
      type: DT_INT64
    }
  }
  attr {
    key: "_class"
    value {
      list {
        s: "loc:@global_step"
      }
    }
  }
  attr {
    key: "_output_shapes"
    value {
      list {
        shape {
        }
      }
    }
  }
}
node {
  name: "global_step/IsVariableInitialized"
  op: "IsVariableInitialized"
  input: "global_step"
  attr {
    key: "_class"
    value {
      list {
        s: "loc:@global_step"
      }
    }
  }
  attr {
    key: "_output_shapes"
    value {
      list {
        shape {
        }
      }
    }
  }
  attr {
    key: "dtype"
    value {
      type: DT_INT64
    }
  }
}
node {
  name: "global_step/cond/Switch"
  op: "Switch"
  input: "global_step/IsVariableInitialized"
  input: "global_step/IsVariableInitialized"
  attr {
    key: "T"
    value {
      type: DT_BOOL
    }
  }
  attr {
    key: "_output_shapes"
    value {
      list {
        shape {
        }
        shape {
        }
      }
    }
  }
}
node {
  name: "global_step/cond/switch_t"
  op: "Identity"
  input: "global_step/cond/Switch:1"
  attr {
    key: "T"
    value {
      type: DT_BOOL
    }
  }
  attr {
    key: "_output_shapes"
    value {
      list {
        shape {
        }
      }
    }
  }
}
node {
  name: "global_step/cond/switch_f"
  op: "Identity"
  input: "global_step/cond/Switch"
  attr {
    key: "T"
    value {
      type: DT_BOOL
    }
  }
  attr {
    key: "_output_shapes"
    value {
      list {
        shape {
        }
      }
    }
  }
}
node {
  name: "global_step/cond/pred_id"
  op: "Identity"
  input: "global_step/IsVariableInitialized"
  attr {
    key: "T"
    value {
      type: DT_BOOL
    }
  }
  attr {
    key: "_output_shapes"
    value {
      list {
        shape {
        }
      }
    }
  }
}
node {
  name: "global_step/cond/read"
  op: "Identity"
  input: "global_step/cond/read/Switch:1"
  attr {
    key: "T"
    value {
      type: DT_INT64
    }
  }
  attr {
    key: "_output_shapes"
    value {
      list {
        shape {
        }
      }
    }
  }
}
node {
  name: "global_step/cond/read/Switch"
  op: "RefSwitch"
  input: "global_step"
  input: "global_step/cond/pred_id"
  attr {
    key: "T"
    value {
      type: DT_INT64
    }
  }
  attr {
    key: "_class"
    value {
      list {
        s: "loc:@global_step"
      }
    }
  }
  attr {
    key: "_output_shapes"
    value {
      list {
        shape {
        }
        shape {
        }
      }
    }
  }
}
node {
  name: "global_step/cond/Switch_1"
  op: "Switch"
  input: "global_step/Initializer/zeros"
  input: "global_step/cond/pred_id"
  attr {
    key: "T"
    value {
      type: DT_INT64
    }
  }
  attr {
    key: "_class"
    value {
      list {
        s: "loc:@global_step"
      }
    }
  }
  attr {
    key: "_output_shapes"
    value {
      list {
        shape {
        }
        shape {
        }
      }
    }
  }
}
node {
  name: "global_step/cond/Merge"
  op: "Merge"
  input: "global_step/cond/Switch_1"
  input: "global_step/cond/read"
  attr {
    key: "N"
    value {
      i: 2
    }
  }
  attr {
    key: "T"
    value {
      type: DT_INT64
    }
  }
  attr {
    key: "_output_shapes"
    value {
      list {
        shape {
        }
        shape {
        }
      }
    }
  }
}
node {
  name: "global_step/add/y"
  op: "Const"
  attr {
    key: "_output_shapes"
    value {
      list {
        shape {
        }
      }
    }
  }
  attr {
    key: "dtype"
    value {
      type: DT_INT64
    }
  }
  attr {
    key: "value"
    value {
      tensor {
        dtype: DT_INT64
        tensor_shape {
        }
        int64_val: 0
      }
    }
  }
}
node {
  name: "global_step/add"
  op: "Add"
  input: "global_step/cond/Merge"
  input: "global_step/add/y"
  attr {
    key: "T"
    value {
      type: DT_INT64
    }
  }
  attr {
    key: "_output_shapes"
    value {
      list {
        shape {
        }
      }
    }
  }
}
node {
  name: "tensors/component_0"
  op: "Const"
  device: "/device:CPU:0"
  attr {
    key: "_output_shapes"
    value {
      list {
        shape {
          dim {
            size: 624
          }
        }
      }
    }
  }
  attr {
    key: "dtype"
    value {
      type: DT_DOUBLE
    }
  }
  attr {
    key: "value"
    value {
      tensor {
        dtype: DT_DOUBLE
        tensor_shape {
          dim {
            size: 624
          }
        }
        tensor_content: "\000\000\000\000\000\0006@\000\000\000\000\000\000C@\000\000\000\000\000\000:@\000\000\000\000\000\200A@\000\000\000\000\000\200A@\000\000\000\000\000\000\370\177\000\000\000\000\000\000K@\000\000\000\000\000\000\000@\000\000\000\000\000\000;@\000\000\000\000\000\000,@\000\000\000\000\000\000\020@\000\000\000\000\000\000M@\000\000\000\000\000\0004@\000\000\000\000\000\200C@\000\000\000\000\000\000,@\000\000\000\000\000\200K@\000\000\000\000\000\000\000@\000\000\000\000\000\000\370\177\000\000\000\000\000\000?@\000\000\000\000\000\000\370\177\000\000\000\000\000\200A@\000\000\000\000\000\000A@\000\000\000\000\000\000.@\000\000\000\000\000\000<@\000\000\000\000\000\000 @\000\000\000\000\000\000C@\000\000\000\000\000\000\370\177\000\000\000\000\000\0003@\000\000\000\000\000\000\370\177\000\000\000\000\000\000\370\177\000\000\000\000\000\000D@\000\000\000\000\000\000\370\177\000\000\000\000\000\000\370\177\000\000\000\000\000\200P@\000\000\000\000\000\000<@\000\000\000\000\000\000E@\000\000\000\000\000\000\370\177\000\000\000\000\000\0005@\000\000\000\000\000\0002@\000\000\000\000\000\000,@\000\000\000\000\000\000D@\000\000\000\000\000\000;@\000\000\000\000\000\000\370\177\000\000\000\000\000\000\010@\000\000\000\000\000\0003@\000\000\000\000\000\000\370\177\000\000\000\000\000\000\370\177\000\000\000\000\000\000\370\177\000\000\000\000\000\000\370\177\000\000\000\000\000\0002@\000\000\000\000\000\000\034@\000\000\000\000\000\0005@\000\000\000\000\000\200H@\000\000\000\000\000\000=@\000\000\000\000\000@P@\000\000\000\000\000\000\370\177\000\000\000\000\000\0005@\000\000\000\000\000\200<@\000\000\000\000\000\000\024@\000\000\000\000\000\000&@\000\000\000\000\000\0006@\000\000\000\000\000\000C@\000\000\000\000\000\200F@\000\000\000\000\000\000\020@\000\000\000\000\000\000\370\177\000\000\000\000\000\000\370\177\000\000\000\000\000\000=@\000\000\000\000\000\0003@\000\000\000\000\000\0001@\000\000\000\000\000\000:@\000\000\000\000\000\000@@\000\000\000\000\000\0000@\000\000\000\000\000\0005@\000\000\000\000\000\000:@\000\000\000\000\000\000@@\000\000\000\000\000\0009@\000\000\000\000\000\000\370\177\000\000\000\000\000\000\370\177\217\302\365(\\\217\352?\000\000\000\000\000\000>@\000\000\000\000\000\0006@\000\000\000\000\000\000=@\000\000\000\000\000\000\370\177\000\000\000\000\000\000<@\000\000\000\000\000\0001@\000\000\000\000\000\200@@\000\000\000\000\000\0000@\000\000\000\000\000\000\370\177\000\000\000\000\000\0007@\000\000\000\000\000\0008@\000\000\000\000\000\000=@\000\000\000\000\000\0004@\000\000\000\000\000\000G@\000\000\000\000\000\000:@\000\000\000\000\000\200M@\000\000\000\000\000\000\370\177\000\000\000\000\000\300Q@\000\000\000\000\000\0007@\000\000\000\000\000\000A@\000\000\000\000\000\000A@\000\000\000\000\000\000<@\000\000\000\000\000\000\370\177\000\000\000\000\000\0005@\000\000\000\000\000\200@@\000\000\000\000\000\200B@\000\000\000\000\000\000<@\000\000\000\000\000\0005@\000\000\000\000\000\000\370\177\000\000\000\000\000\000C@\000\000\000\000\000\000\370\177\000\000\000\000\000\200G@\000\000\000\000\000\000-@\000\000\000\000\000\0006@\000\000\000\000\000\0004@\000\000\000\000\000\0001@\000\000\000\000\000\0005@\000\000\000\000\000\240Q@\000\000\000\000\000\000=@\000\000\000\000\000\0008@\000\000\000\000\000\000\000@\000\000\000\000\000\0005@\000\000\000\000\000\000\370\177\000\000\000\000\000@@@\000\000\000\000\000@@@\000\000\000\000\000\000K@\000\000\000\000\000\000(@\000\000\000\000\000\000\370\177\000\000\000\000\000\0008@\000\000\000\000\000\000\370\177\000\000\000\000\000\200F@\000\000\000\000\000\200@@\000\000\000\000\000\0004@\000\000\000\000\000\200G@\000\000\000\000\000\000=@\000\000\000\000\000\0009@\000\000\000\000\000\0007@\000\000\000\000\000\0003@\000\000\000\000\000\200B@\000\000\000\000\000\0000@\000\000\000\000\000\0008@\000\000\000\000\000\000\370\177\000\000\000\000\000\0006@\000\000\000\000\000\0008@\000\000\000\000\000\0003@\000\000\000\000\000\0002@\000\000\000\000\000\0003@\000\000\000\000\000\000;@\000\000\000\000\000\000\"@\000\000\000\000\000@B@\000\000\000\000\000\000E@\000\000\000\000\000\200I@\000\000\000\000\000\0006@\000\000\000\000\000\300K@\000\000\000\000\000@D@\000\000\000\000\000\000\370\177\000\000\000\000\000\200I@\000\000\000\000\000\0000@\000\000\000\000\000\000>@\000\000\000\000\000\000\370\177\000\000\000\000\000\000\370\177\000\000\000\000\000\000F@\000\000\000\000\000\000D@\000\000\000\000\000\000:@\000\000\000\000\000\0001@\000\000\000\000\000\000\360?\000\000\000\000\000\000\"@\000\000\000\000\000\000\370\177\000\000\000\000\000\200F@\000\000\000\000\000\000\370\177\000\000\000\000\000\000<@\000\000\000\000\000\200N@\000\000\000\000\000\000\020@\000\000\000\000\000\000\360?\000\000\000\000\000\0005@\000\000\000\000\000\000L@\000\000\000\000\000\0002@\000\000\000\000\000\000\370\177\000\000\000\000\000\000I@\000\000\000\000\000\000>@\000\000\000\000\000\000B@\000\000\000\000\000\000\370\177\000\000\000\000\000\000\370\177\000\000\000\000\000\000\"@\000\000\000\000\000\000\360?\000\000\000\000\000\000\020@\000\000\000\000\000\000\370\177\000\000\000\000\000\000\370\177\000\000\000\000\000\200F@\000\000\000\000\000\000D@\000\000\000\000\000\000B@\000\000\000\000\000\000@@\000\000\000\000\000\0003@\000\000\000\000\000\0003@\000\000\000\000\000\000\010@\000\000\000\000\000\000F@\000\000\000\000\000\000M@\000\000\000\000\000\000\370\177\000\000\000\000\000\000E@\000\000\000\000\000\000\370\177\000\000\000\000\000\0008@\000\000\000\000\000\000<@\000\000\000\000\000\000\370\177\000\000\000\000\000\000A@\000\000\000\000\000\300F@\000\000\000\000\000\0002@\000\000\000\000\000\000\000@\000\000\000\000\000\000@@\000\000\000\000\000\000:@\000\000\000\000\000\0000@\000\000\000\000\000\000D@\000\000\000\000\000\0008@\000\000\000\000\000\200A@\000\000\000\000\000\0006@\000\000\000\000\000\000>@\000\000\000\000\000\000\370\177\000\000\000\000\000\000?@\000\000\000\000\000\000;@\000\000\000\000\000\000E@\000\000\000\000\000\000@@\000\000\000\000\000\000>@\000\000\000\000\000\0000@\000\000\000\000\000\000;@\000\000\000\000\000\200I@\000\000\000\000\000\000\370\177\000\000\000\000\000\000C@\000\000\000\000\000\0006@\000\000\000\000\000\0003@\000\000\000\000\000\2004@\000\000\000\000\000\0002@\000\000\000\000\000\000\370\177\000\000\000\000\000\200A@\000\000\000\000\000\000=@\000\000\000\000\000\200M@\000\000\000\000\000\000\024@\000\000\000\000\000\0008@\000\000\000\000\000\000\370\177\000\000\000\000\000\000F@\000\000\000\000\000\000 @\000\000\000\000\000\0003@\000\000\000\000\000\200@@\000\000\000\000\000\000\370\177\000\000\000\000\000\000\370\177\000\000\000\000\000\000=@\000\000\000\000\000\0006@\000\000\000\000\000\000>@\000\000\000\000\000\000F@\000\000\000\000\000\0009@\000\000\000\000\000\0008@\000\000\000\000\000\200B@\000\000\000\000\000\000K@\000\000\000\000\000\000\370\177\000\000\000\000\000\000=@\000\000\000\000\000\000O@\000\000\000\000\000\000>@\000\000\000\000\000\200D@\000\000\000\000\000\000=@\000\000\000\000\000\000\370\177\000\000\000\000\000\000>@\000\000\000\000\000\200A@\000\000\000\000\000\000I@\000\000\000\000\000\000\370\177\000\000\000\000\000\000\010@\000\000\000\000\000\000J@\000\000\000\000\000\000D@\000\000\000\000\000\000\370\177\000\000\000\000\000\000B@\000\000\000\000\000\0000@\000\000\000\000\000\0009@\000\000\000\000\000\000M@\000\000\000\000\000\200A@\000\000\000\000\000\000\370\177\000\000\000\000\000\0009@\000\000\000\000\000\200D@\000\000\000\000\000\200B@\000\000\000\000\000\000\370\177\000\000\000\000\000\200O@\000\000\000\000\000\200F@\000\000\000\000\000\000\370\177\000\000\000\000\000\000\034@\000\000\000\000\000\200A@\000\000\000\000\000@P@\000\000\000\000\000\000<@\000\000\000\000\000\0000@\000\000\000\000\000\0003@\000\000\000\000\000\000\370\177\000\000\000\000\000\200@@\000\000\000\000\000\000>@\000\000\000\000\000\0006@\000\000\000\000\000\000E@\000\000\000\000\000\0006@\000\000\000\000\000\000:@\000\000\000\000\000\0003@\000\000\000\000\000\000B@\000\000\000\000\000\0008@\000\000\000\000\000\0008@\000\000\000\000\000\000\370\177\000\000\000\000\000\2007@\000\000\000\000\000\000\000@\000\000\000\000\000\000\370\177\000\000\000\000\000\000I@\000\000\000\000\000\000\370\177\000\000\000\000\000\000\370\177\000\000\000\000\000\0003@\000\000\000\000\000\000\370\177\000\000\000\000\000\000\370\177q=\n\327\243p\355?\000\000\000\000\000\000\370\177\000\000\000\000\000\0001@\000\000\000\000\000\000>@\000\000\000\000\000\000>@\000\000\000\000\000\0008@\000\000\000\000\000\0002@\000\000\000\000\000\000:@\000\000\000\000\000\000<@\000\000\000\000\000\200E@\000\000\000\000\000\000:@\000\000\000\000\000\0008@\000\000\000\000\000\000K@\000\000\000\000\000\000?@\000\000\000\000\000\000D@\000\000\000\000\000\0006@\000\000\000\000\000\000;@\000\000\000\000\000\000>@\000\000\000\000\000\0006@\000\000\000\000\000\000\370\177\000\000\000\000\000\000B@\000\000\000\000\000\200N@\000\000\000\000\000\000B@\000\000\000\000\000\000?@\000\000\000\000\000\0000@\000\000\000\000\000\000\370\177\000\000\000\000\000\300F@\000\000\000\000\000\000C@\000\000\000\000\000\0000@\000\000\000\000\000\000\370\177\000\000\000\000\000\000\370\177\000\000\000\000\000\000=@\000\000\000\000\000\200D@\000\000\000\000\000\200F@\000\000\000\000\000\200F@\000\000\000\000\000\000\000@\000\000\000\000\000\0008@\000\000\000\000\000\000<@\000\000\000\000\000\0009@\000\000\000\000\000\000B@\000\000\000\000\000\0008@\000\000\000\000\000\000D@\000\000\000\000\000\000\370\177\000\000\000\000\000\000\010@\000\000\000\000\000\000E@\000\000\000\000\000\0007@\000\000\000\000\000\000\370\177\000\000\000\000\000\000.@\000\000\000\000\000\0009@\000\000\000\000\000\000\370\177\000\000\000\000\000\000<@\000\000\000\000\000\0006@\000\000\000\000\000\000C@\000\000\000\000\000\000\370\177\000\000\000\000\000\000\370\177\000\000\000\000\000\000D@\000\000\000\000\000\000=@\000\000\000\000\000\200F@\000\000\000\000\000\200A@\000\000\000\000\000\000\370\177\000\000\000\000\000\000>@\000\000\000\000\000\000N@\000\000\000\000\000\000\370\177\000\000\000\000\000\000\370\177\000\000\000\000\000\0008@\000\000\000\000\000\0009@\000\000\000\000\000\0002@\000\000\000\000\000\0003@\000\000\000\000\000\0006@\000\000\000\000\000\000\010@\000\000\000\000\000\000\370\177\000\000\000\000\000\0006@\000\000\000\000\000\000;@\000\000\000\000\000\0004@\000\000\000\000\000\0003@\000\000\000\000\000\000E@\000\000\000\000\000\000\360?\000\000\000\000\000\000@@\000\000\000\000\000\200A@\000\000\000\000\000\000\370\177\000\000\000\000\000\0002@\000\000\000\000\000\000\360?\000\000\000\000\000\000B@\000\000\000\000\000\000\370\177\000\000\000\000\000\0001@\000\000\000\000\000\000B@\000\000\000\000\000\0005@\000\000\000\000\000\000<@\000\000\000\000\000\0007@\000\000\000\000\000\0008@\000\000\000\000\000\0006@\000\000\000\000\000\000?@\000\000\000\000\000\000G@\000\000\000\000\000\0007@\000\000\000\000\000\000<@\000\000\000\000\000\200C@\000\000\000\000\000\000:@\000\000\000\000\000\0005@\000\000\000\000\000\000<@\000\000\000\000\000\0004@\000\000\000\000\000\000A@\000\000\000\000\000\200I@\000\000\000\000\000\000\010@\000\000\000\000\000\0005@\000\000\000\000\000\000\370\177\000\000\000\000\000\000\370\177\000\000\000\000\000\000\370\177\000\000\000\000\000\200@@\000\000\000\000\000\000\370\177\000\000\000\000\000\000F@\000\000\000\000\000\000\370\177\000\000\000\000\000\000A@\000\000\000\000\000\0002@\000\000\000\000\000\000>@\000\000\000\000\000\000$@\000\000\000\000\000\000\370\177\000\000\000\000\000\0005@\000\000\000\000\000\000=@\000\000\000\000\000\000<@\000\000\000\000\000\0002@\000\000\000\000\000\000\370\177\000\000\000\000\000\000<@\000\000\000\000\000\0003@\000\000\000\000\000\000\370\177\000\000\000\000\000\000@@\000\000\000\000\000\000<@\000\000\000\000\000\000\370\177\000\000\000\000\000\000E@\000\000\000\000\000\0001@\000\000\000\000\000\000I@\000\000\000\000\000\000,@\000\000\000\000\000\0005@\000\000\000\000\000\0008@\000\000\000\000\000\000P@\000\000\000\000\000\000?@\000\000\000\000\000\200F@\000\000\000\000\000\0004@\000\000\000\000\000\0009@\000\000\000\000\000\000<@\000\000\000\000\000\000\370\177\000\000\000\000\000\000\020@\000\000\000\000\000\000*@\000\000\000\000\000\000A@\000\000\000\000\000\000\024@\000\000\000\000\000\000J@\000\000\000\000\000\000B@\000\000\000\000\000\000\370\177\000\000\000\000\000\000>@\000\000\000\000\000\200H@\000\000\000\000\000\000\370\177\000\000\000\000\000\000=@\000\000\000\000\000@P@\000\000\000\000\000\000\370\177\000\000\000\000\000\000I@\000\000\000\000\000\000\370\177\000\000\000\000\000\000H@\000\000\000\000\000\000A@\000\000\000\000\000\200G@\000\000\000\000\000\000H@\000\000\000\000\000\000\370\177\000\000\000\000\000\000C@\000\000\000\000\000\000\370\177\000\000\000\000\000\000L@\000\000\000\000\000\000\370\177\000\000\000\000\000\000\350?\000\000\000\000\000\000\370\177\000\000\000\000\000\000C@\000\000\000\000\000\200@@\000\000\000\000\000\0007@\000\000\000\000\000\0006@\000\000\000\000\000\000\370\177\000\000\000\000\000\000A@\000\000\000\000\000\000=@\000\000\000\000\000\0006@\000\000\000\000\000\000\000@\000\000\000\000\000\000\"@\000\000\000\000\000\000\370\177\000\000\000\000\000\000I@\000\000\000\000\000\200O@\000\000\000\000\000\0009@\000\000\000\000\000\000\370\177\000\000\000\000\000\200A@\000\000\000\000\000\000M@\000\000\000\000\000\000>@\000\000\000\000\000\000\"@\000\000\000\000\000\000\370\177\000\000\000\000\000\0005@\000\000\000\000\000\200K@\000\000\000\000\000\300Q@\000\000\000\000\000\0005@\000\000\000\000\000\000\370\177\000\000\000\000\000\000K@\000\000\000\000\000\000\370\177\000\000\000\000\000\0009@\000\000\000\000\000\0008@\000\000\000\000\000\0001@\000\000\000\000\000\0005@\000\000\000\000\000\000\370\177\000\000\000\000\000\200B@\000\000\000\000\000\0000@\000\000\000\000\000\0002@\000\000\000\000\000\200@@\000\000\000\000\000\000\370\177\000\000\000\000\000\000<@\000\000\000\000\000\000:@\000\000\000\000\000\000=@\000\000\000\000\000\000\370\177\000\000\000\000\000\000B@\000\000\000\000\000\000K@\000\000\000\000\000\0008@\000\000\000\000\000\200G@\000\000\000\000\000\000A@\000\000\000\000\000\000\370\177\000\000\000\000\000\000B@\000\000\000\000\000\000@@\000\000\000\000\000\000>@\000\000\000\000\000\0006@\000\000\000\000\000\000\370\177\000\000\000\000\000\000F@\000\000\000\000\000\000\370\177\000\000\000\000\000@D@\000\000\000\000\000\000I@\000\000\000\000\000\000\370\177\000\000\000\000\000\200C@\000\000\000\000\000\0007@\000\000\000\000\000\000\000@\000\000\000\000\000\000\370\177\000\000\000\000\000\0001@\000\000\000\000\000\000\370\177\000\000\000\000\000\000>@\000\000\000\000\000\000\034@\000\000\000\000\000\200F@\000\000\000\000\000\000>@\000\000\000\000\000\000\370\177\000\000\000\000\000\0006@\000\000\000\000\000\000B@\000\000\000\000\000\000\"@\000\000\000\000\000\000&@\000\000\000\000\000\000@@\000\000\000\000\000\000I@\000\000\000\000\000\000P@\000\000\000\000\000\0003@\000\000\000\000\000\000\370\177\000\000\000\000\000\200@@\000\000\000\000\000\000 @\000\000\000\000\000\0001@\000\000\000\000\000\000;@\000\000\000\000\000\000\370\177\000\000\000\000\000\0006@\000\000\000\000\000\0006@\000\000\000\000\000\000O@\000\000\000\000\000\000H@\000\000\000\000\000\000\370\177\000\000\000\000\000\200C@\000\000\000\000\000\000B@\000\000\000\000\000\000\370\177\000\000\000\000\000\000D@\000\000\000\000\000\000<@\000\000\000\000\000\000\370\177\000\000\000\000\000\000\370\177\000\000\000\000\000\0008@\000\000\000\000\000\0003@\000\000\000\000\000\000=@\000\000\000\000\000\000\370\177\000\000\000\000\000\000@@\000\000\000\000\000\000O@\000\000\000\000\000\200J@\000\000\000\000\000\000B@\000\000\000\000\000\000\370\177\000\000\000\000\000\0000@\000\000\000\000\000\0003@\000\000\000\000\000\000A@\000\000\000\000\000\200C@\000\000\000\000\000\000\370\177\000\000\000\000\000\000@@\000\000\000\000\000\0009@\000\000\000\000\000\200C@\000\000\000\000\000\000K@\000\000\000\000\000\000B@\000\000\000\000\000\000\370\177\000\000\000\000\000\0002@\000\000\000\000\000\200G@\000\000\000\000\000\000N@\000\000\000\000\000\0006@\000\000\000\000\000\000\370\177\000\000\000\000\000\200A@\000\000\000\000\000\000J@\000\000\000\000\000\200G@\000\000\000\000\000\000\370\177\000\000\000\000\000\200B@\000\000\000\000\000\000B@\000\000\000\000\000\000\370\177\000\000\000\000\000\200H@\000\000\000\000\000\000\370\177\000\000\000\000\000\200H@\000\000\000\000\000\0008@\000\000\000\000\000\000\370\177\000\000\000\000\000\000\370\177\000\000\000\000\000\000F@\000\000\000\000\000\200A@\000\000\000\000\000\000B@\000\000\000\000\000\000>@\000\000\000\000\000\000;@\000\000\000\000\000\0006@\000\000\000\000\000\000D@\000\000\000\000\000\200C@\000\000\000\000\000\000\370\177\000\000\000\000\000\000\370\177\000\000\000\000\000\000\370\177\000\000\000\000\000\200A@\000\000\000\000\000\0008@\000\000\000\000\000\000A@\000\000\000\000\000\000:@\000\000\000\000\000\000\020@\000\000\000\000\000\000:@\000\000\000\000\000\000;@\000\000\000\000\000\000E@\000\000\000\000\000\0004@\000\000\000\000\000\0005@"
      }
    }
  }
}
node {
  name: "tensors/component_1"
  op: "Const"
  device: "/device:CPU:0"
  attr {
    key: "_output_shapes"
    value {
      list {
        shape {
          dim {
            size: 624
          }
        }
      }
    }
  }
  attr {
    key: "dtype"
    value {
      type: DT_INT64
    }
  }
  attr {
    key: "value"
    value {
      tensor {
        dtype: DT_INT64
        tensor_shape {
          dim {
            size: 624
          }
        }
        tensor_content: "\001\000\000\000\000\000\000\000\002\000\000\000\000\000\000\000\002\000\000\000\000\000\000\000\002\000\000\000\000\000\000\000\001\000\000\000\000\000\000\000\001\000\000\000\000\000\000\000\001\000\000\000\000\000\000\000\001\000\000\000\000\000\000\000\002\000\000\000\000\000\000\000\002\000\000\000\000\000\000\000\002\000\000\000\000\000\000\000\002\000\000\000\000\000\000\000\001\000\000\000\000\000\000\000\001\000\000\000\000\000\000\000\002\000\000\000\000\000\000\000\002\000\000\000\000\000\000\000\001\000\000\000\000\000\000\000\001\000\000\000\000\000\000\000\002\000\000\000\000\000\000\000\002\000\000\000\000\000\000\000\001\000\000\000\000\000\000\000\001\000\000\000\000\000\000\000\002\000\000\000\000\000\000\000\001\000\000\000\000\000\000\000\002\000\000\000\000\000\000\000\002\000\000\000\000\000\000\000\001\000\000\000\000\000\000\000\001\000\000\000\000\000\000\000\002\000\000\000\000\000\000\000\001\000\000\000\000\000\000\000\001\000\000\000\000\000\000\000\002\000\000\000\000\000\000\000\002\000\000\000\000\000\000\000\001\000\000\000\000\000\000\000\001\000\000\000\000\000\000\000\001\000\000\000\000\000\000\000\001\000\000\000\000\000\000\000\001\000\000\000\000\000\000\000\002\000\000\000\000\000\000\000\002\000\000\000\000\000\000\000\002\000\000\000\000\000\000\000\002\000\000\000\000\000\000\000\001\000\000\000\000\000\000\000\002\000\000\000\000\000\000\000\002\000\000\000\000\000\000\000\001\000\000\000\000\000\000\000\001\000\000\000\000\000\000\000\002\000\000\000\000\000\000\000\001\000\000\000\000\000\000\000\002\000\000\000\000\000\000\000\001\000\000\000\000\000\000\000\001\000\000\000\000\000\000\000\002\000\000\000\000\000\000\000\002\000\000\000\000\000\000\000\001\000\000\000\000\000\000\000\001\000\000\000\000\000\000\000\002\000\000\000\000\000\000\000\001\000\000\000\000\000\000\000\002\000\000\000\000\000\000\000\001\000\000\000\000\000\000\000\001\000\000\000\000\000\000\000\002\000\000\000\000\000\000\000\001\000\000\000\000\000\000\000\001\000\000\000\000\000\000\000\001\000\000\000\000\000\000\000\001\000\000\000\000\000\000\000\002\000\000\000\000\000\000\000\001\000\000\000\000\000\000\000\002\000\000\000\000\000\000\000\001\000\000\000\000\000\000\000\001\000\000\000\000\000\000\000\002\000\000\000\000\000\000\000\001\000\000\000\000\000\000\000\001\000\000\000\000\000\000\000\001\000\000\000\000\000\000\000\001\000\000\000\000\000\000\000\001\000\000\000\000\000\000\000\001\000\000\000\000\000\000\000\001\000\000\000\000\000\000\000\002\000\000\000\000\000\000\000\001\000\000\000\000\000\000\000\001\000\000\000\000\000\000\000\002\000\000\000\000\000\000\000\001\000\000\000\000\000\000\000\002\000\000\000\000\000\000\000\002\000\000\000\000\000\000\000\001\000\000\000\000\000\000\000\001\000\000\000\000\000\000\000\002\000\000\000\000\000\000\000\001\000\000\000\000\000\000\000\001\000\000\000\000\000\000\000\001\000\000\000\000\000\000\000\001\000\000\000\000\000\000\000\001\000\000\000\000\000\000\000\001\000\000\000\000\000\000\000\001\000\000\000\000\000\000\000\001\000\000\000\000\000\000\000\001\000\000\000\000\000\000\000\002\000\000\000\000\000\000\000\001\000\000\000\000\000\000\000\002\000\000\000\000\000\000\000\001\000\000\000\000\000\000\000\001\000\000\000\000\000\000\000\001\000\000\000\000\000\000\000\001\000\000\000\000\000\000\000\001\000\000\000\000\000\000\000\002\000\000\000\000\000\000\000\001\000\000\000\000\000\000\000\001\000\000\000\000\000\000\000\002\000\000\000\000\000\000\000\001\000\000\000\000\000\000\000\002\000\000\000\000\000\000\000\001\000\000\000\000\000\000\000\002\000\000\000\000\000\000\000\002\000\000\000\000\000\000\000\001\000\000\000\000\000\000\000\001\000\000\000\000\000\000\000\001\000\000\000\000\000\000\000\001\000\000\000\000\000\000\000\002\000\000\000\000\000\000\000\001\000\000\000\000\000\000\000\001\000\000\000\000\000\000\000\001\000\000\000\000\000\000\000\002\000\000\000\000\000\000\000\001\000\000\000\000\000\000\000\001\000\000\000\000\000\000\000\001\000\000\000\000\000\000\000\001\000\000\000\000\000\000\000\002\000\000\000\000\000\000\000\001\000\000\000\000\000\000\000\001\000\000\000\000\000\000\000\001\000\000\000\000\000\000\000\002\000\000\000\000\000\000\000\002\000\000\000\000\000\000\000\001\000\000\000\000\000\000\000\001\000\000\000\000\000\000\000\002\000\000\000\000\000\000\000\001\000\000\000\000\000\000\000\001\000\000\000\000\000\000\000\001\000\000\000\000\000\000\000\002\000\000\000\000\000\000\000\002\000\000\000\000\000\000\000\002\000\000\000\000\000\000\000\001\000\000\000\000\000\000\000\001\000\000\000\000\000\000\000\001\000\000\000\000\000\000\000\001\000\000\000\000\000\000\000\002\000\000\000\000\000\000\000\001\000\000\000\000\000\000\000\001\000\000\000\000\000\000\000\001\000\000\000\000\000\000\000\002\000\000\000\000\000\000\000\001\000\000\000\000\000\000\000\001\000\000\000\000\000\000\000\001\000\000\000\000\000\000\000\001\000\000\000\000\000\000\000\002\000\000\000\000\000\000\000\001\000\000\000\000\000\000\000\001\000\000\000\000\000\000\000\001\000\000\000\000\000\000\000\001\000\000\000\000\000\000\000\002\000\000\000\000\000\000\000\001\000\000\000\000\000\000\000\001\000\000\000\000\000\000\000\001\000\000\000\000\000\000\000\001\000\000\000\000\000\000\000\002\000\000\000\000\000\000\000\002\000\000\000\000\000\000\000\001\000\000\000\000\000\000\000\001\000\000\000\000\000\000\000\001\000\000\000\000\000\000\000\001\000\000\000\000\000\000\000\002\000\000\000\000\000\000\000\001\000\000\000\000\000\000\000\001\000\000\000\000\000\000\000\001\000\000\000\000\000\000\000\001\000\000\000\000\000\000\000\002\000\000\000\000\000\000\000\001\000\000\000\000\000\000\000\001\000\000\000\000\000\000\000\002\000\000\000\000\000\000\000\001\000\000\000\000\000\000\000\001\000\000\000\000\000\000\000\001\000\000\000\000\000\000\000\002\000\000\000\000\000\000\000\001\000\000\000\000\000\000\000\002\000\000\000\000\000\000\000\001\000\000\000\000\000\000\000\001\000\000\000\000\000\000\000\001\000\000\000\000\000\000\000\002\000\000\000\000\000\000\000\001\000\000\000\000\000\000\000\002\000\000\000\000\000\000\000\001\000\000\000\000\000\000\000\002\000\000\000\000\000\000\000\002\000\000\000\000\000\000\000\001\000\000\000\000\000\000\000\001\000\000\000\000\000\000\000\002\000\000\000\000\000\000\000\002\000\000\000\000\000\000\000\001\000\000\000\000\000\000\000\001\000\000\000\000\000\000\000\001\000\000\000\000\000\000\000\001\000\000\000\000\000\000\000\001\000\000\000\000\000\000\000\002\000\000\000\000\000\000\000\001\000\000\000\000\000\000\000\001\000\000\000\000\000\000\000\002\000\000\000\000\000\000\000\001\000\000\000\000\000\000\000\001\000\000\000\000\000\000\000\002\000\000\000\000\000\000\000\001\000\000\000\000\000\000\000\001\000\000\000\000\000\000\000\001\000\000\000\000\000\000\000\002\000\000\000\000\000\000\000\002\000\000\000\000\000\000\000\001\000\000\000\000\000\000\000\002\000\000\000\000\000\000\000\001\000\000\000\000\000\000\000\001\000\000\000\000\000\000\000\001\000\000\000\000\000\000\000\001\000\000\000\000\000\000\000\001\000\000\000\000\000\000\000\001\000\000\000\000\000\000\000\001\000\000\000\000\000\000\000\001\000\000\000\000\000\000\000\001\000\000\000\000\000\000\000\001\000\000\000\000\000\000\000\002\000\000\000\000\000\000\000\002\000\000\000\000\000\000\000\001\000\000\000\000\000\000\000\001\000\000\000\000\000\000\000\002\000\000\000\000\000\000\000\001\000\000\000\000\000\000\000\002\000\000\000\000\000\000\000\001\000\000\000\000\000\000\000\002\000\000\000\000\000\000\000\001\000\000\000\000\000\000\000\001\000\000\000\000\000\000\000\002\000\000\000\000\000\000\000\002\000\000\000\000\000\000\000\001\000\000\000\000\000\000\000\001\000\000\000\000\000\000\000\001\000\000\000\000\000\000\000\001\000\000\000\000\000\000\000\002\000\000\000\000\000\000\000\002\000\000\000\000\000\000\000\001\000\000\000\000\000\000\000\001\000\000\000\000\000\000\000\001\000\000\000\000\000\000\000\002\000\000\000\000\000\000\000\001\000\000\000\000\000\000\000\001\000\000\000\000\000\000\000\002\000\000\000\000\000\000\000\002\000\000\000\000\000\000\000\002\000\000\000\000\000\000\000\002\000\000\000\000\000\000\000\002\000\000\000\000\000\000\000\002\000\000\000\000\000\000\000\001\000\000\000\000\000\000\000\001\000\000\000\000\000\000\000\001\000\000\000\000\000\000\000\001\000\000\000\000\000\000\000\002\000\000\000\000\000\000\000\001\000\000\000\000\000\000\000\001\000\000\000\000\000\000\000\001\000\000\000\000\000\000\000\002\000\000\000\000\000\000\000\002\000\000\000\000\000\000\000\001\000\000\000\000\000\000\000\001\000\000\000\000\000\000\000\002\000\000\000\000\000\000\000\001\000\000\000\000\000\000\000\002\000\000\000\000\000\000\000\002\000\000\000\000\000\000\000\002\000\000\000\000\000\000\000\001\000\000\000\000\000\000\000\001\000\000\000\000\000\000\000\002\000\000\000\000\000\000\000\001\000\000\000\000\000\000\000\001\000\000\000\000\000\000\000\001\000\000\000\000\000\000\000\001\000\000\000\000\000\000\000\001\000\000\000\000\000\000\000\001\000\000\000\000\000\000\000\001\000\000\000\000\000\000\000\001\000\000\000\000\000\000\000\001\000\000\000\000\000\000\000\002\000\000\000\000\000\000\000\002\000\000\000\000\000\000\000\002\000\000\000\000\000\000\000\001\000\000\000\000\000\000\000\002\000\000\000\000\000\000\000\001\000\000\000\000\000\000\000\001\000\000\000\000\000\000\000\001\000\000\000\000\000\000\000\002\000\000\000\000\000\000\000\001\000\000\000\000\000\000\000\002\000\000\000\000\000\000\000\002\000\000\000\000\000\000\000\001\000\000\000\000\000\000\000\001\000\000\000\000\000\000\000\002\000\000\000\000\000\000\000\001\000\000\000\000\000\000\000\001\000\000\000\000\000\000\000\002\000\000\000\000\000\000\000\002\000\000\000\000\000\000\000\001\000\000\000\000\000\000\000\002\000\000\000\000\000\000\000\002\000\000\000\000\000\000\000\002\000\000\000\000\000\000\000\002\000\000\000\000\000\000\000\001\000\000\000\000\000\000\000\001\000\000\000\000\000\000\000\002\000\000\000\000\000\000\000\002\000\000\000\000\000\000\000\001\000\000\000\000\000\000\000\002\000\000\000\000\000\000\000\002\000\000\000\000\000\000\000\001\000\000\000\000\000\000\000\001\000\000\000\000\000\000\000\002\000\000\000\000\000\000\000\002\000\000\000\000\000\000\000\001\000\000\000\000\000\000\000\002\000\000\000\000\000\000\000\001\000\000\000\000\000\000\000\002\000\000\000\000\000\000\000\002\000\000\000\000\000\000\000\002\000\000\000\000\000\000\000\002\000\000\000\000\000\000\000\001\000\000\000\000\000\000\000\001\000\000\000\000\000\000\000\001\000\000\000\000\000\000\000\002\000\000\000\000\000\000\000\001\000\000\000\000\000\000\000\001\000\000\000\000\000\000\000\002\000\000\000\000\000\000\000\001\000\000\000\000\000\000\000\001\000\000\000\000\000\000\000\001\000\000\000\000\000\000\000\002\000\000\000\000\000\000\000\001\000\000\000\000\000\000\000\001\000\000\000\000\000\000\000\001\000\000\000\000\000\000\000\002\000\000\000\000\000\000\000\002\000\000\000\000\000\000\000\002\000\000\000\000\000\000\000\001\000\000\000\000\000\000\000\001\000\000\000\000\000\000\000\001\000\000\000\000\000\000\000\001\000\000\000\000\000\000\000\001\000\000\000\000\000\000\000\001\000\000\000\000\000\000\000\001\000\000\000\000\000\000\000\001\000\000\000\000\000\000\000\002\000\000\000\000\000\000\000\002\000\000\000\000\000\000\000\002\000\000\000\000\000\000\000\002\000\000\000\000\000\000\000\001\000\000\000\000\000\000\000\001\000\000\000\000\000\000\000\002\000\000\000\000\000\000\000\001\000\000\000\000\000\000\000\001\000\000\000\000\000\000\000\001\000\000\000\000\000\000\000\002\000\000\000\000\000\000\000\002\000\000\000\000\000\000\000\002\000\000\000\000\000\000\000\002\000\000\000\000\000\000\000\001\000\000\000\000\000\000\000\001\000\000\000\000\000\000\000\001\000\000\000\000\000\000\000\001\000\000\000\000\000\000\000\002\000\000\000\000\000\000\000\002\000\000\000\000\000\000\000\002\000\000\000\000\000\000\000\001\000\000\000\000\000\000\000\001\000\000\000\000\000\000\000\001\000\000\000\000\000\000\000\002\000\000\000\000\000\000\000\002\000\000\000\000\000\000\000\001\000\000\000\000\000\000\000\002\000\000\000\000\000\000\000\001\000\000\000\000\000\000\000\001\000\000\000\000\000\000\000\001\000\000\000\000\000\000\000\002\000\000\000\000\000\000\000\001\000\000\000\000\000\000\000\002\000\000\000\000\000\000\000\001\000\000\000\000\000\000\000\001\000\000\000\000\000\000\000\001\000\000\000\000\000\000\000\002\000\000\000\000\000\000\000\002\000\000\000\000\000\000\000\001\000\000\000\000\000\000\000\002\000\000\000\000\000\000\000\001\000\000\000\000\000\000\000\001\000\000\000\000\000\000\000\002\000\000\000\000\000\000\000\001\000\000\000\000\000\000\000\001\000\000\000\000\000\000\000\002\000\000\000\000\000\000\000\001\000\000\000\000\000\000\000\002\000\000\000\000\000\000\000\001\000\000\000\000\000\000\000\001\000\000\000\000\000\000\000\001\000\000\000\000\000\000\000\001\000\000\000\000\000\000\000\002\000\000\000\000\000\000\000\001\000\000\000\000\000\000\000\001\000\000\000\000\000\000\000\002\000\000\000\000\000\000\000\001\000\000\000\000\000\000\000\001\000\000\000\000\000\000\000\002\000\000\000\000\000\000\000\002\000\000\000\000\000\000\000\002\000\000\000\000\000\000\000\001\000\000\000\000\000\000\000\002\000\000\000\000\000\000\000\001\000\000\000\000\000\000\000\001\000\000\000\000\000\000\000\001\000\000\000\000\000\000\000\002\000\000\000\000\000\000\000\001\000\000\000\000\000\000\000\001\000\000\000\000\000\000\000\002\000\000\000\000\000\000\000\002\000\000\000\000\000\000\000\001\000\000\000\000\000\000\000\001\000\000\000\000\000\000\000\001\000\000\000\000\000\000\000\002\000\000\000\000\000\000\000\002\000\000\000\000\000\000\000\001\000\000\000\000\000\000\000\001\000\000\000\000\000\000\000\002\000\000\000\000\000\000\000\002\000\000\000\000\000\000\000\002\000\000\000\000\000\000\000\001\000\000\000\000\000\000\000\001\000\000\000\000\000\000\000\002\000\000\000\000\000\000\000\001\000\000\000\000\000\000\000\001\000\000\000\000\000\000\000\002\000\000\000\000\000\000\000\001\000\000\000\000\000\000\000\001\000\000\000\000\000\000\000\002\000\000\000\000\000\000\000\001\000\000\000\000\000\000\000\002\000\000\000\000\000\000\000\001\000\000\000\000\000\000\000\001\000\000\000\000\000\000\000\001\000\000\000\000\000\000\000\001\000\000\000\000\000\000\000\001\000\000\000\000\000\000\000\001\000\000\000\000\000\000\000\001\000\000\000\000\000\000\000\001\000\000\000\000\000\000\000\002\000\000\000\000\000\000\000\002\000\000\000\000\000\000\000\001\000\000\000\000\000\000\000\001\000\000\000\000\000\000\000\001\000\000\000\000\000\000\000\001\000\000\000\000\000\000\000\001\000\000\000\000\000\000\000\001\000\000\000\000\000\000\000\001\000\000\000\000\000\000\000\001\000\000\000\000\000\000\000\001\000\000\000\000\000\000\000\001\000\000\000\000\000\000\000\002\000\000\000\000\000\000\000\001\000\000\000\000\000\000\000\001\000\000\000\000\000\000\000\002\000\000\000\000\000\000\000\002\000\000\000\000\000\000\000\002\000\000\000\000\000\000\000\001\000\000\000\000\000\000\000\001\000\000\000\000\000\000\000\001\000\000\000\000\000\000\000\001\000\000\000\000\000\000\000\002\000\000\000\000\000\000\000\001\000\000\000\000\000\000\000\001\000\000\000\000\000\000\000\001\000\000\000\000\000\000\000\002\000\000\000\000\000\000\000\001\000\000\000\000\000\000\000\002\000\000\000\000\000\000\000\002\000\000\000\000\000\000\000\001\000\000\000\000\000\000\000\001\000\000\000\000\000\000\000\001\000\000\000\000\000\000\000\001\000\000\000\000\000\000\000\001\000\000\000\000\000\000\000\001\000\000\000\000\000\000\000\001\000\000\000\000\000\000\000\001\000\000\000\000\000\000\000\001\000\000\000\000\000\000\000\002\000\000\000\000\000\000\000\001\000\000\000\000\000\000\000\002\000\000\000\000\000\000\000\001\000\000\000\000\000\000\000\001\000\000\000\000\000\000\000\002\000\000\000\000\000\000\000\002\000\000\000\000\000\000\000\002\000\000\000\000\000\000\000\002\000\000\000\000\000\000\000\001\000\000\000\000\000\000\000\002\000\000\000\000\000\000\000\001\000\000\000\000\000\000\000\001\000\000\000\000\000\000\000\001\000\000\000\000\000\000\000\001\000\000\000\000\000\000\000\001\000\000\000\000\000\000\000\001\000\000\000\000\000\000\000\002\000\000\000\000\000\000\000\001\000\000\000\000\000\000\000\001\000\000\000\000\000\000\000\002\000\000\000\000\000\000\000\001\000\000\000\000\000\000\000\002\000\000\000\000\000\000\000\001\000\000\000\000\000\000\000\002\000\000\000\000\000\000\000\001\000\000\000\000\000\000\000\001\000\000\000\000\000\000\000\002\000\000\000\000\000\000\000\001\000\000\000\000\000\000\000\001\000\000\000\000\000\000\000\002\000\000\000\000\000\000\000\001\000\000\000\000\000\000\000\001\000\000\000\000\000\000\000\001\000\000\000\000\000\000\000\002\000\000\000\000\000\000\000\001\000\000\000\000\000\000\000\001\000\000\000\000\000\000\000\002\000\000\000\000\000\000\000\002\000\000\000\000\000\000\000\002\000\000\000\000\000\000\000\001\000\000\000\000\000\000\000\002\000\000\000\000\000\000\000\001\000\000\000\000\000\000\000\002\000\000\000\000\000\000\000\002\000\000\000\000\000\000\000\002\000\000\000\000\000\000\000\002\000\000\000\000\000\000\000\001\000\000\000\000\000\000\000\001\000\000\000\000\000\000\000\001\000\000\000\000\000\000\000\002\000\000\000\000\000\000\000\001\000\000\000\000\000\000\000\001\000\000\000\000\000\000\000\001\000\000\000\000\000\000\000\001\000\000\000\000\000\000\000\001\000\000\000\000\000\000\000\001\000\000\000\000\000\000\000\001\000\000\000\000\000\000\000\002\000\000\000\000\000\000\000\001\000\000\000\000\000\000\000\002\000\000\000\000\000\000\000\001\000\000\000\000\000\000\000\002\000\000\000\000\000\000\000\002\000\000\000\000\000\000\000\001\000\000\000\000\000\000\000\001\000\000\000\000\000\000\000\001\000\000\000\000\000\000\000\001\000\000\000\000\000\000\000\002\000\000\000\000\000\000\000\001\000\000\000\000\000\000\000\001\000\000\000\000\000\000\000\002\000\000\000\000\000\000\000\001\000\000\000\000\000\000\000\001\000\000\000\000\000\000\000\001\000\000\000\000\000\000\000\002\000\000\000\000\000\000\000\001\000\000\000\000\000\000\000\002\000\000\000\000\000\000\000\001\000\000\000\000\000\000\000\001\000\000\000\000\000\000\000\002\000\000\000\000\000\000\000\002\000\000\000\000\000\000\000\002\000\000\000\000\000\000\000\001\000\000\000\000\000\000\000\002\000\000\000\000\000\000\000\002\000\000\000\000\000\000\000\001\000\000\000\000\000\000\000\001\000\000\000\000\000\000\000\001\000\000\000\000\000\000\000\002\000\000\000\000\000\000\000\001\000\000\000\000\000\000\000\001\000\000\000\000\000\000\000\001\000\000\000\000\000\000\000\001\000\000\000\000\000\000\000\001\000\000\000\000\000\000\000\002\000\000\000\000\000\000\000\001\000\000\000\000\000\000\000\002\000\000\000\000\000\000\000\001\000\000\000\000\000\000\000\001\000\000\000\000\000\000\000\002\000\000\000\000\000\000\000\001\000\000\000\000\000\000\000\001\000\000\000\000\000\000\000\001\000\000\000\000\000\000\000\002\000\000\000\000\000\000\000\001\000\000\000\000\000\000\000\001\000\000\000\000\000\000\000\001\000\000\000\000\000\000\000\001\000\000\000\000\000\000\000\001\000\000\000\000\000\000\000\001\000\000\000\000\000\000\000\001\000\000\000\000\000\000\000\002\000\000\000\000\000\000\000\002\000\000\000\000\000\000\000\002\000\000\000\000\000\000\000\001\000\000\000\000\000\000\000\002\000\000\000\000\000\000\000\001\000\000\000\000\000\000\000\001\000\000\000\000\000\000\000\002\000\000\000\000\000\000\000\001\000\000\000\000\000\000\000\002\000\000\000\000\000\000\000\002\000\000\000\000\000\000\000\001\000\000\000\000\000\000\000\001\000\000\000\000\000\000\000\001\000\000\000\000\000\000\000\001\000\000\000\000\000\000\000\001\000\000\000\000\000\000\000"
      }
    }
  }
}
node {
  name: "tensors/component_2"
  op: "Const"
  device: "/device:CPU:0"
  attr {
    key: "_output_shapes"
    value {
      list {
        shape {
          dim {
            size: 624
          }
        }
      }
    }
  }
  attr {
    key: "dtype"
    value {
      type: DT_INT64
    }
  }
  attr {
    key: "value"
    value {
      tensor {
        dtype: DT_INT64
        tensor_shape {
          dim {
            size: 624
          }
        }
        tensor_content: "\003\000\000\000\000\000\000\000\001\000\000\000\000\000\000\000\003\000\000\000\000\000\000\000\001\000\000\000\000\000\000\000\003\000\000\000\000\000\000\000\003\000\000\000\000\000\000\000\001\000\000\000\000\000\000\000\003\000\000\000\000\000\000\000\003\000\000\000\000\000\000\000\002\000\000\000\000\000\000\000\003\000\000\000\000\000\000\000\001\000\000\000\000\000\000\000\003\000\000\000\000\000\000\000\003\000\000\000\000\000\000\000\003\000\000\000\000\000\000\000\002\000\000\000\000\000\000\000\003\000\000\000\000\000\000\000\002\000\000\000\000\000\000\000\003\000\000\000\000\000\000\000\003\000\000\000\000\000\000\000\002\000\000\000\000\000\000\000\002\000\000\000\000\000\000\000\003\000\000\000\000\000\000\000\001\000\000\000\000\000\000\000\003\000\000\000\000\000\000\000\003\000\000\000\000\000\000\000\003\000\000\000\000\000\000\000\001\000\000\000\000\000\000\000\003\000\000\000\000\000\000\000\003\000\000\000\000\000\000\000\001\000\000\000\000\000\000\000\001\000\000\000\000\000\000\000\003\000\000\000\000\000\000\000\002\000\000\000\000\000\000\000\001\000\000\000\000\000\000\000\001\000\000\000\000\000\000\000\003\000\000\000\000\000\000\000\003\000\000\000\000\000\000\000\003\000\000\000\000\000\000\000\003\000\000\000\000\000\000\000\003\000\000\000\000\000\000\000\002\000\000\000\000\000\000\000\003\000\000\000\000\000\000\000\002\000\000\000\000\000\000\000\003\000\000\000\000\000\000\000\003\000\000\000\000\000\000\000\003\000\000\000\000\000\000\000\003\000\000\000\000\000\000\000\003\000\000\000\000\000\000\000\003\000\000\000\000\000\000\000\003\000\000\000\000\000\000\000\003\000\000\000\000\000\000\000\001\000\000\000\000\000\000\000\002\000\000\000\000\000\000\000\001\000\000\000\000\000\000\000\001\000\000\000\000\000\000\000\002\000\000\000\000\000\000\000\003\000\000\000\000\000\000\000\002\000\000\000\000\000\000\000\003\000\000\000\000\000\000\000\003\000\000\000\000\000\000\000\001\000\000\000\000\000\000\000\001\000\000\000\000\000\000\000\003\000\000\000\000\000\000\000\001\000\000\000\000\000\000\000\003\000\000\000\000\000\000\000\002\000\000\000\000\000\000\000\003\000\000\000\000\000\000\000\003\000\000\000\000\000\000\000\003\000\000\000\000\000\000\000\002\000\000\000\000\000\000\000\003\000\000\000\000\000\000\000\002\000\000\000\000\000\000\000\003\000\000\000\000\000\000\000\003\000\000\000\000\000\000\000\003\000\000\000\000\000\000\000\003\000\000\000\000\000\000\000\003\000\000\000\000\000\000\000\002\000\000\000\000\000\000\000\003\000\000\000\000\000\000\000\003\000\000\000\000\000\000\000\003\000\000\000\000\000\000\000\003\000\000\000\000\000\000\000\001\000\000\000\000\000\000\000\002\000\000\000\000\000\000\000\003\000\000\000\000\000\000\000\003\000\000\000\000\000\000\000\003\000\000\000\000\000\000\000\001\000\000\000\000\000\000\000\003\000\000\000\000\000\000\000\003\000\000\000\000\000\000\000\003\000\000\000\000\000\000\000\001\000\000\000\000\000\000\000\003\000\000\000\000\000\000\000\003\000\000\000\000\000\000\000\003\000\000\000\000\000\000\000\001\000\000\000\000\000\000\000\001\000\000\000\000\000\000\000\002\000\000\000\000\000\000\000\002\000\000\000\000\000\000\000\003\000\000\000\000\000\000\000\003\000\000\000\000\000\000\000\001\000\000\000\000\000\000\000\003\000\000\000\000\000\000\000\003\000\000\000\000\000\000\000\003\000\000\000\000\000\000\000\003\000\000\000\000\000\000\000\003\000\000\000\000\000\000\000\003\000\000\000\000\000\000\000\003\000\000\000\000\000\000\000\001\000\000\000\000\000\000\000\003\000\000\000\000\000\000\000\003\000\000\000\000\000\000\000\003\000\000\000\000\000\000\000\003\000\000\000\000\000\000\000\003\000\000\000\000\000\000\000\003\000\000\000\000\000\000\000\002\000\000\000\000\000\000\000\001\000\000\000\000\000\000\000\003\000\000\000\000\000\000\000\002\000\000\000\000\000\000\000\003\000\000\000\000\000\000\000\002\000\000\000\000\000\000\000\002\000\000\000\000\000\000\000\001\000\000\000\000\000\000\000\003\000\000\000\000\000\000\000\003\000\000\000\000\000\000\000\003\000\000\000\000\000\000\000\003\000\000\000\000\000\000\000\003\000\000\000\000\000\000\000\003\000\000\000\000\000\000\000\003\000\000\000\000\000\000\000\003\000\000\000\000\000\000\000\002\000\000\000\000\000\000\000\002\000\000\000\000\000\000\000\002\000\000\000\000\000\000\000\001\000\000\000\000\000\000\000\001\000\000\000\000\000\000\000\003\000\000\000\000\000\000\000\001\000\000\000\000\000\000\000\003\000\000\000\000\000\000\000\003\000\000\000\000\000\000\000\003\000\000\000\000\000\000\000\003\000\000\000\000\000\000\000\002\000\000\000\000\000\000\000\002\000\000\000\000\000\000\000\003\000\000\000\000\000\000\000\003\000\000\000\000\000\000\000\002\000\000\000\000\000\000\000\002\000\000\000\000\000\000\000\002\000\000\000\000\000\000\000\001\000\000\000\000\000\000\000\003\000\000\000\000\000\000\000\003\000\000\000\000\000\000\000\003\000\000\000\000\000\000\000\001\000\000\000\000\000\000\000\003\000\000\000\000\000\000\000\003\000\000\000\000\000\000\000\003\000\000\000\000\000\000\000\003\000\000\000\000\000\000\000\003\000\000\000\000\000\000\000\002\000\000\000\000\000\000\000\003\000\000\000\000\000\000\000\003\000\000\000\000\000\000\000\003\000\000\000\000\000\000\000\003\000\000\000\000\000\000\000\001\000\000\000\000\000\000\000\003\000\000\000\000\000\000\000\001\000\000\000\000\000\000\000\003\000\000\000\000\000\000\000\001\000\000\000\000\000\000\000\003\000\000\000\000\000\000\000\003\000\000\000\000\000\000\000\003\000\000\000\000\000\000\000\001\000\000\000\000\000\000\000\003\000\000\000\000\000\000\000\003\000\000\000\000\000\000\000\001\000\000\000\000\000\000\000\002\000\000\000\000\000\000\000\003\000\000\000\000\000\000\000\003\000\000\000\000\000\000\000\002\000\000\000\000\000\000\000\003\000\000\000\000\000\000\000\002\000\000\000\000\000\000\000\003\000\000\000\000\000\000\000\001\000\000\000\000\000\000\000\003\000\000\000\000\000\000\000\001\000\000\000\000\000\000\000\003\000\000\000\000\000\000\000\003\000\000\000\000\000\000\000\002\000\000\000\000\000\000\000\002\000\000\000\000\000\000\000\003\000\000\000\000\000\000\000\002\000\000\000\000\000\000\000\001\000\000\000\000\000\000\000\001\000\000\000\000\000\000\000\003\000\000\000\000\000\000\000\003\000\000\000\000\000\000\000\003\000\000\000\000\000\000\000\002\000\000\000\000\000\000\000\003\000\000\000\000\000\000\000\003\000\000\000\000\000\000\000\003\000\000\000\000\000\000\000\003\000\000\000\000\000\000\000\003\000\000\000\000\000\000\000\003\000\000\000\000\000\000\000\003\000\000\000\000\000\000\000\003\000\000\000\000\000\000\000\003\000\000\000\000\000\000\000\001\000\000\000\000\000\000\000\003\000\000\000\000\000\000\000\002\000\000\000\000\000\000\000\003\000\000\000\000\000\000\000\002\000\000\000\000\000\000\000\003\000\000\000\000\000\000\000\001\000\000\000\000\000\000\000\003\000\000\000\000\000\000\000\002\000\000\000\000\000\000\000\001\000\000\000\000\000\000\000\002\000\000\000\000\000\000\000\003\000\000\000\000\000\000\000\002\000\000\000\000\000\000\000\003\000\000\000\000\000\000\000\003\000\000\000\000\000\000\000\001\000\000\000\000\000\000\000\003\000\000\000\000\000\000\000\002\000\000\000\000\000\000\000\003\000\000\000\000\000\000\000\002\000\000\000\000\000\000\000\003\000\000\000\000\000\000\000\001\000\000\000\000\000\000\000\003\000\000\000\000\000\000\000\002\000\000\000\000\000\000\000\003\000\000\000\000\000\000\000\002\000\000\000\000\000\000\000\003\000\000\000\000\000\000\000\002\000\000\000\000\000\000\000\002\000\000\000\000\000\000\000\002\000\000\000\000\000\000\000\002\000\000\000\000\000\000\000\003\000\000\000\000\000\000\000\003\000\000\000\000\000\000\000\002\000\000\000\000\000\000\000\003\000\000\000\000\000\000\000\003\000\000\000\000\000\000\000\001\000\000\000\000\000\000\000\003\000\000\000\000\000\000\000\002\000\000\000\000\000\000\000\001\000\000\000\000\000\000\000\002\000\000\000\000\000\000\000\003\000\000\000\000\000\000\000\003\000\000\000\000\000\000\000\001\000\000\000\000\000\000\000\003\000\000\000\000\000\000\000\003\000\000\000\000\000\000\000\003\000\000\000\000\000\000\000\001\000\000\000\000\000\000\000\001\000\000\000\000\000\000\000\001\000\000\000\000\000\000\000\002\000\000\000\000\000\000\000\003\000\000\000\000\000\000\000\003\000\000\000\000\000\000\000\001\000\000\000\000\000\000\000\001\000\000\000\000\000\000\000\003\000\000\000\000\000\000\000\002\000\000\000\000\000\000\000\003\000\000\000\000\000\000\000\003\000\000\000\000\000\000\000\001\000\000\000\000\000\000\000\001\000\000\000\000\000\000\000\001\000\000\000\000\000\000\000\003\000\000\000\000\000\000\000\002\000\000\000\000\000\000\000\001\000\000\000\000\000\000\000\003\000\000\000\000\000\000\000\001\000\000\000\000\000\000\000\003\000\000\000\000\000\000\000\002\000\000\000\000\000\000\000\003\000\000\000\000\000\000\000\003\000\000\000\000\000\000\000\003\000\000\000\000\000\000\000\003\000\000\000\000\000\000\000\003\000\000\000\000\000\000\000\003\000\000\000\000\000\000\000\001\000\000\000\000\000\000\000\003\000\000\000\000\000\000\000\003\000\000\000\000\000\000\000\003\000\000\000\000\000\000\000\002\000\000\000\000\000\000\000\003\000\000\000\000\000\000\000\001\000\000\000\000\000\000\000\001\000\000\000\000\000\000\000\002\000\000\000\000\000\000\000\003\000\000\000\000\000\000\000\003\000\000\000\000\000\000\000\001\000\000\000\000\000\000\000\003\000\000\000\000\000\000\000\001\000\000\000\000\000\000\000\001\000\000\000\000\000\000\000\001\000\000\000\000\000\000\000\003\000\000\000\000\000\000\000\003\000\000\000\000\000\000\000\003\000\000\000\000\000\000\000\002\000\000\000\000\000\000\000\003\000\000\000\000\000\000\000\001\000\000\000\000\000\000\000\001\000\000\000\000\000\000\000\001\000\000\000\000\000\000\000\002\000\000\000\000\000\000\000\001\000\000\000\000\000\000\000\001\000\000\000\000\000\000\000\001\000\000\000\000\000\000\000\002\000\000\000\000\000\000\000\003\000\000\000\000\000\000\000\002\000\000\000\000\000\000\000\003\000\000\000\000\000\000\000\002\000\000\000\000\000\000\000\002\000\000\000\000\000\000\000\001\000\000\000\000\000\000\000\001\000\000\000\000\000\000\000\003\000\000\000\000\000\000\000\003\000\000\000\000\000\000\000\002\000\000\000\000\000\000\000\002\000\000\000\000\000\000\000\003\000\000\000\000\000\000\000\001\000\000\000\000\000\000\000\003\000\000\000\000\000\000\000\002\000\000\000\000\000\000\000\003\000\000\000\000\000\000\000\001\000\000\000\000\000\000\000\003\000\000\000\000\000\000\000\001\000\000\000\000\000\000\000\001\000\000\000\000\000\000\000\003\000\000\000\000\000\000\000\001\000\000\000\000\000\000\000\003\000\000\000\000\000\000\000\001\000\000\000\000\000\000\000\001\000\000\000\000\000\000\000\003\000\000\000\000\000\000\000\001\000\000\000\000\000\000\000\002\000\000\000\000\000\000\000\001\000\000\000\000\000\000\000\002\000\000\000\000\000\000\000\002\000\000\000\000\000\000\000\002\000\000\000\000\000\000\000\002\000\000\000\000\000\000\000\002\000\000\000\000\000\000\000\003\000\000\000\000\000\000\000\003\000\000\000\000\000\000\000\003\000\000\000\000\000\000\000\003\000\000\000\000\000\000\000\001\000\000\000\000\000\000\000\003\000\000\000\000\000\000\000\003\000\000\000\000\000\000\000\003\000\000\000\000\000\000\000\003\000\000\000\000\000\000\000\001\000\000\000\000\000\000\000\002\000\000\000\000\000\000\000\003\000\000\000\000\000\000\000\003\000\000\000\000\000\000\000\003\000\000\000\000\000\000\000\002\000\000\000\000\000\000\000\003\000\000\000\000\000\000\000\003\000\000\000\000\000\000\000\003\000\000\000\000\000\000\000\003\000\000\000\000\000\000\000\001\000\000\000\000\000\000\000\003\000\000\000\000\000\000\000\003\000\000\000\000\000\000\000\001\000\000\000\000\000\000\000\001\000\000\000\000\000\000\000\003\000\000\000\000\000\000\000\003\000\000\000\000\000\000\000\001\000\000\000\000\000\000\000\003\000\000\000\000\000\000\000\001\000\000\000\000\000\000\000\003\000\000\000\000\000\000\000\001\000\000\000\000\000\000\000\003\000\000\000\000\000\000\000\003\000\000\000\000\000\000\000\001\000\000\000\000\000\000\000\003\000\000\000\000\000\000\000\003\000\000\000\000\000\000\000\001\000\000\000\000\000\000\000\003\000\000\000\000\000\000\000\002\000\000\000\000\000\000\000\003\000\000\000\000\000\000\000\002\000\000\000\000\000\000\000\003\000\000\000\000\000\000\000\002\000\000\000\000\000\000\000\001\000\000\000\000\000\000\000\003\000\000\000\000\000\000\000\003\000\000\000\000\000\000\000\001\000\000\000\000\000\000\000\003\000\000\000\000\000\000\000\003\000\000\000\000\000\000\000\003\000\000\000\000\000\000\000\002\000\000\000\000\000\000\000\002\000\000\000\000\000\000\000\002\000\000\000\000\000\000\000\003\000\000\000\000\000\000\000\003\000\000\000\000\000\000\000\003\000\000\000\000\000\000\000\003\000\000\000\000\000\000\000\003\000\000\000\000\000\000\000\002\000\000\000\000\000\000\000\003\000\000\000\000\000\000\000\002\000\000\000\000\000\000\000\003\000\000\000\000\000\000\000\003\000\000\000\000\000\000\000\003\000\000\000\000\000\000\000\003\000\000\000\000\000\000\000\001\000\000\000\000\000\000\000\002\000\000\000\000\000\000\000\003\000\000\000\000\000\000\000\003\000\000\000\000\000\000\000\002\000\000\000\000\000\000\000\002\000\000\000\000\000\000\000\002\000\000\000\000\000\000\000\003\000\000\000\000\000\000\000\003\000\000\000\000\000\000\000\003\000\000\000\000\000\000\000\003\000\000\000\000\000\000\000\003\000\000\000\000\000\000\000\003\000\000\000\000\000\000\000\003\000\000\000\000\000\000\000\002\000\000\000\000\000\000\000\002\000\000\000\000\000\000\000\003\000\000\000\000\000\000\000\003\000\000\000\000\000\000\000\001\000\000\000\000\000\000\000\003\000\000\000\000\000\000\000\002\000\000\000\000\000\000\000\003\000\000\000\000\000\000\000\001\000\000\000\000\000\000\000\001\000\000\000\000\000\000\000\003\000\000\000\000\000\000\000\002\000\000\000\000\000\000\000\001\000\000\000\000\000\000\000\002\000\000\000\000\000\000\000\002\000\000\000\000\000\000\000\003\000\000\000\000\000\000\000\003\000\000\000\000\000\000\000\002\000\000\000\000\000\000\000\003\000\000\000\000\000\000\000\001\000\000\000\000\000\000\000\002\000\000\000\000\000\000\000\001\000\000\000\000\000\000\000\003\000\000\000\000\000\000\000\001\000\000\000\000\000\000\000\002\000\000\000\000\000\000\000\003\000\000\000\000\000\000\000\001\000\000\000\000\000\000\000\001\000\000\000\000\000\000\000\003\000\000\000\000\000\000\000\003\000\000\000\000\000\000\000\001\000\000\000\000\000\000\000\001\000\000\000\000\000\000\000\002\000\000\000\000\000\000\000\003\000\000\000\000\000\000\000\001\000\000\000\000\000\000\000\003\000\000\000\000\000\000\000\001\000\000\000\000\000\000\000\002\000\000\000\000\000\000\000\003\000\000\000\000\000\000\000\003\000\000\000\000\000\000\000\002\000\000\000\000\000\000\000\001\000\000\000\000\000\000\000\003\000\000\000\000\000\000\000\003\000\000\000\000\000\000\000\003\000\000\000\000\000\000\000\003\000\000\000\000\000\000\000\002\000\000\000\000\000\000\000\002\000\000\000\000\000\000\000\003\000\000\000\000\000\000\000\001\000\000\000\000\000\000\000\002\000\000\000\000\000\000\000\003\000\000\000\000\000\000\000\003\000\000\000\000\000\000\000\003\000\000\000\000\000\000\000\003\000\000\000\000\000\000\000\002\000\000\000\000\000\000\000\003\000\000\000\000\000\000\000\003\000\000\000\000\000\000\000\001\000\000\000\000\000\000\000\003\000\000\000\000\000\000\000\001\000\000\000\000\000\000\000\001\000\000\000\000\000\000\000\003\000\000\000\000\000\000\000\003\000\000\000\000\000\000\000\003\000\000\000\000\000\000\000\003\000\000\000\000\000\000\000\001\000\000\000\000\000\000\000\001\000\000\000\000\000\000\000\003\000\000\000\000\000\000\000\003\000\000\000\000\000\000\000\001\000\000\000\000\000\000\000\003\000\000\000\000\000\000\000\001\000\000\000\000\000\000\000\003\000\000\000\000\000\000\000\003\000\000\000\000\000\000\000\003\000\000\000\000\000\000\000\003\000\000\000\000\000\000\000\003\000\000\000\000\000\000\000\001\000\000\000\000\000\000\000\001\000\000\000\000\000\000\000\002\000\000\000\000\000\000\000\001\000\000\000\000\000\000\000\003\000\000\000\000\000\000\000\003\000\000\000\000\000\000\000\003\000\000\000\000\000\000\000\003\000\000\000\000\000\000\000\001\000\000\000\000\000\000\000\001\000\000\000\000\000\000\000\003\000\000\000\000\000\000\000\001\000\000\000\000\000\000\000\002\000\000\000\000\000\000\000\003\000\000\000\000\000\000\000\002\000\000\000\000\000\000\000\003\000\000\000\000\000\000\000\001\000\000\000\000\000\000\000\003\000\000\000\000\000\000\000\003\000\000\000\000\000\000\000\001\000\000\000\000\000\000\000\003\000\000\000\000\000\000\000\003\000\000\000\000\000\000\000\002\000\000\000\000\000\000\000\001\000\000\000\000\000\000\000\003\000\000\000\000\000\000\000\002\000\000\000\000\000\000\000\002\000\000\000\000\000\000\000\003\000\000\000\000\000\000\000\003\000\000\000\000\000\000\000\003\000\000\000\000\000\000\000\003\000\000\000\000\000\000\000\002\000\000\000\000\000\000\000\001\000\000\000\000\000\000\000\001\000\000\000\000\000\000\000\003\000\000\000\000\000\000\000\001\000\000\000\000\000\000\000\001\000\000\000\000\000\000\000\003\000\000\000\000\000\000\000\003\000\000\000\000\000\000\000\002\000\000\000\000\000\000\000\001\000\000\000\000\000\000\000\001\000\000\000\000\000\000\000\002\000\000\000\000\000\000\000\002\000\000\000\000\000\000\000\003\000\000\000\000\000\000\000\002\000\000\000\000\000\000\000\001\000\000\000\000\000\000\000\002\000\000\000\000\000\000\000\003\000\000\000\000\000\000\000\003\000\000\000\000\000\000\000\003\000\000\000\000\000\000\000\001\000\000\000\000\000\000\000\001\000\000\000\000\000\000\000\001\000\000\000\000\000\000\000\001\000\000\000\000\000\000\000\003\000\000\000\000\000\000\000\003\000\000\000\000\000\000\000\003\000\000\000\000\000\000\000\002\000\000\000\000\000\000\000\003\000\000\000\000\000\000\000\003\000\000\000\000\000\000\000\003\000\000\000\000\000\000\000\003\000\000\000\000\000\000\000\003\000\000\000\000\000\000\000\003\000\000\000\000\000\000\000\003\000\000\000\000\000\000\000\002\000\000\000\000\000\000\000\001\000\000\000\000\000\000\000\001\000\000\000\000\000\000\000\003\000\000\000\000\000\000\000\003\000\000\000\000\000\000\000\003\000\000\000\000\000\000\000\002\000\000\000\000\000\000\000\001\000\000\000\000\000\000\000\003\000\000\000\000\000\000\000\003\000\000\000\000\000\000\000\002\000\000\000\000\000\000\000\001\000\000\000\000\000\000\000\002\000\000\000\000\000\000\000\001\000\000\000\000\000\000\000\003\000\000\000\000\000\000\000\001\000\000\000\000\000\000\000\002\000\000\000\000\000\000\000\001\000\000\000\000\000\000\000\003\000\000\000\000\000\000\000\003\000\000\000\000\000\000\000\003\000\000\000\000\000\000\000\001\000\000\000\000\000\000\000\003\000\000\000\000\000\000\000\003\000\000\000\000\000\000\000\002\000\000\000\000\000\000\000\003\000\000\000\000\000\000\000\002\000\000\000\000\000\000\000\003\000\000\000\000\000\000\000\003\000\000\000\000\000\000\000\001\000\000\000\000\000\000\000\002\000\000\000\000\000\000\000\003\000\000\000\000\000\000\000\001\000\000\000\000\000\000\000\003\000\000\000\000\000\000\000\001\000\000\000\000\000\000\000\003\000\000\000\000\000\000\000\003\000\000\000\000\000\000\000\001\000\000\000\000\000\000\000\002\000\000\000\000\000\000\000\001\000\000\000\000\000\000\000\003\000\000\000\000\000\000\000\003\000\000\000\000\000\000\000\003\000\000\000\000\000\000\000\003\000\000\000\000\000\000\000\003\000\000\000\000\000\000\000\002\000\000\000\000\000\000\000\003\000\000\000\000\000\000\000\003\000\000\000\000\000\000\000\002\000\000\000\000\000\000\000\002\000\000\000\000\000\000\000\003\000\000\000\000\000\000\000\001\000\000\000\000\000\000\000\003\000\000\000\000\000\000\000\003\000\000\000\000\000\000\000"
      }
    }
  }
}
node {
  name: "tensors/component_3"
  op: "Const"
  device: "/device:CPU:0"
  attr {
    key: "_output_shapes"
    value {
      list {
        shape {
          dim {
            size: 624
          }
        }
      }
    }
  }
  attr {
    key: "dtype"
    value {
      type: DT_INT64
    }
  }
  attr {
    key: "value"
    value {
      tensor {
        dtype: DT_INT64
        tensor_shape {
          dim {
            size: 624
          }
        }
        tensor_content: "\000\000\000\000\000\000\000\000\001\000\000\000\000\000\000\000\001\000\000\000\000\000\000\000\001\000\000\000\000\000\000\000\000\000\000\000\000\000\000\000\000\000\000\000\000\000\000\000\000\000\000\000\000\000\000\000\000\000\000\000\000\000\000\000\001\000\000\000\000\000\000\000\001\000\000\000\000\000\000\000\001\000\000\000\000\000\000\000\001\000\000\000\000\000\000\000\000\000\000\000\000\000\000\000\000\000\000\000\000\000\000\000\000\000\000\000\000\000\000\000\001\000\000\000\000\000\000\000\000\000\000\000\000\000\000\000\001\000\000\000\000\000\000\000\000\000\000\000\000\000\000\000\001\000\000\000\000\000\000\000\000\000\000\000\000\000\000\000\001\000\000\000\000\000\000\000\001\000\000\000\000\000\000\000\001\000\000\000\000\000\000\000\000\000\000\000\000\000\000\000\001\000\000\000\000\000\000\000\000\000\000\000\000\000\000\000\000\000\000\000\000\000\000\000\001\000\000\000\000\000\000\000\000\000\000\000\000\000\000\000\000\000\000\000\000\000\000\000\001\000\000\000\000\000\000\000\001\000\000\000\000\000\000\000\000\000\000\000\000\000\000\000\000\000\000\000\000\000\000\000\000\000\000\000\000\000\000\000\001\000\000\000\000\000\000\000\000\000\000\000\000\000\000\000\000\000\000\000\000\000\000\000\001\000\000\000\000\000\000\000\000\000\000\000\000\000\000\000\000\000\000\000\000\000\000\000\000\000\000\000\000\000\000\000\001\000\000\000\000\000\000\000\001\000\000\000\000\000\000\000\000\000\000\000\000\000\000\000\000\000\000\000\000\000\000\000\001\000\000\000\000\000\000\000\000\000\000\000\000\000\000\000\000\000\000\000\000\000\000\000\000\000\000\000\000\000\000\000\000\000\000\000\000\000\000\000\001\000\000\000\000\000\000\000\001\000\000\000\000\000\000\000\000\000\000\000\000\000\000\000\001\000\000\000\000\000\000\000\001\000\000\000\000\000\000\000\000\000\000\000\000\000\000\000\001\000\000\000\000\000\000\000\000\000\000\000\000\000\000\000\000\000\000\000\000\000\000\000\001\000\000\000\000\000\000\000\000\000\000\000\000\000\000\000\000\000\000\000\000\000\000\000\000\000\000\000\000\000\000\000\001\000\000\000\000\000\000\000\001\000\000\000\000\000\000\000\000\000\000\000\000\000\000\000\001\000\000\000\000\000\000\000\000\000\000\000\000\000\000\000\000\000\000\000\000\000\000\000\000\000\000\000\000\000\000\000\000\000\000\000\000\000\000\000\000\000\000\000\000\000\000\000\001\000\000\000\000\000\000\000\000\000\000\000\000\000\000\000\000\000\000\000\000\000\000\000\000\000\000\000\000\000\000\000\001\000\000\000\000\000\000\000\001\000\000\000\000\000\000\000\000\000\000\000\000\000\000\000\001\000\000\000\000\000\000\000\001\000\000\000\000\000\000\000\000\000\000\000\000\000\000\000\001\000\000\000\000\000\000\000\001\000\000\000\000\000\000\000\000\000\000\000\000\000\000\000\000\000\000\000\000\000\000\000\001\000\000\000\000\000\000\000\000\000\000\000\000\000\000\000\000\000\000\000\000\000\000\000\000\000\000\000\000\000\000\000\000\000\000\000\000\000\000\000\000\000\000\000\000\000\000\000\000\000\000\000\000\000\000\000\000\000\000\000\000\000\000\000\000\000\000\000\000\000\000\000\001\000\000\000\000\000\000\000\001\000\000\000\000\000\000\000\000\000\000\000\000\000\000\000\000\000\000\000\000\000\000\000\000\000\000\000\000\000\000\000\000\000\000\000\000\000\000\000\000\000\000\000\000\000\000\000\000\000\000\000\000\000\000\000\000\000\000\000\000\000\000\000\001\000\000\000\000\000\000\000\001\000\000\000\000\000\000\000\000\000\000\000\000\000\000\000\001\000\000\000\000\000\000\000\000\000\000\000\000\000\000\000\000\000\000\000\000\000\000\000\000\000\000\000\000\000\000\000\000\000\000\000\000\000\000\000\000\000\000\000\000\000\000\000\000\000\000\000\000\000\000\000\000\000\000\000\000\000\000\000\000\000\000\000\000\000\000\000\000\000\000\000\000\000\000\000\000\000\000\000\000\000\000\000\000\000\000\000\000\000\000\000\000\000\000\000\000\000\000\000\000\000\000\000\000\000\000\000\001\000\000\000\000\000\000\000\000\000\000\000\000\000\000\000\001\000\000\000\000\000\000\000\000\000\000\000\000\000\000\000\001\000\000\000\000\000\000\000\001\000\000\000\000\000\000\000\000\000\000\000\000\000\000\000\000\000\000\000\000\000\000\000\000\000\000\000\000\000\000\000\000\000\000\000\000\000\000\000\001\000\000\000\000\000\000\000\000\000\000\000\000\000\000\000\000\000\000\000\000\000\000\000\001\000\000\000\000\000\000\000\000\000\000\000\000\000\000\000\000\000\000\000\000\000\000\000\000\000\000\000\000\000\000\000\000\000\000\000\000\000\000\000\001\000\000\000\000\000\000\000\001\000\000\000\000\000\000\000\000\000\000\000\000\000\000\000\000\000\000\000\000\000\000\000\000\000\000\000\000\000\000\000\001\000\000\000\000\000\000\000\000\000\000\000\000\000\000\000\000\000\000\000\000\000\000\000\000\000\000\000\000\000\000\000\000\000\000\000\000\000\000\000\001\000\000\000\000\000\000\000\000\000\000\000\000\000\000\000\000\000\000\000\000\000\000\000\000\000\000\000\000\000\000\000\000\000\000\000\000\000\000\000\001\000\000\000\000\000\000\000\000\000\000\000\000\000\000\000\000\000\000\000\000\000\000\000\000\000\000\000\000\000\000\000\000\000\000\000\000\000\000\000\001\000\000\000\000\000\000\000\000\000\000\000\000\000\000\000\000\000\000\000\000\000\000\000\000\000\000\000\000\000\000\000\001\000\000\000\000\000\000\000\001\000\000\000\000\000\000\000\000\000\000\000\000\000\000\000\000\000\000\000\000\000\000\000\000\000\000\000\000\000\000\000\000\000\000\000\000\000\000\000\000\000\000\000\000\000\000\000\001\000\000\000\000\000\000\000\000\000\000\000\000\000\000\000\000\000\000\000\000\000\000\000\000\000\000\000\000\000\000\000\000\000\000\000\000\000\000\000\000\000\000\000\000\000\000\000\000\000\000\000\000\000\000\000\000\000\000\000\000\000\000\000\000\000\000\000\000\000\000\000\000\000\000\000\000\000\000\000\000\000\000\000\000\000\000\000\001\000\000\000\000\000\000\000\001\000\000\000\000\000\000\000\000\000\000\000\000\000\000\000\001\000\000\000\000\000\000\000\001\000\000\000\000\000\000\000\000\000\000\000\000\000\000\000\000\000\000\000\000\000\000\000\001\000\000\000\000\000\000\000\000\000\000\000\000\000\000\000\001\000\000\000\000\000\000\000\001\000\000\000\000\000\000\000\001\000\000\000\000\000\000\000\001\000\000\000\000\000\000\000\000\000\000\000\000\000\000\000\000\000\000\000\000\000\000\000\001\000\000\000\000\000\000\000\000\000\000\000\000\000\000\000\000\000\000\000\000\000\000\000\000\000\000\000\000\000\000\000\000\000\000\000\000\000\000\000\000\000\000\000\000\000\000\000\001\000\000\000\000\000\000\000\000\000\000\000\000\000\000\000\000\000\000\000\000\000\000\000\001\000\000\000\000\000\000\000\001\000\000\000\000\000\000\000\001\000\000\000\000\000\000\000\000\000\000\000\000\000\000\000\001\000\000\000\000\000\000\000\000\000\000\000\000\000\000\000\000\000\000\000\000\000\000\000\000\000\000\000\000\000\000\000\001\000\000\000\000\000\000\000\001\000\000\000\000\000\000\000\000\000\000\000\000\000\000\000\001\000\000\000\000\000\000\000\000\000\000\000\000\000\000\000\001\000\000\000\000\000\000\000\000\000\000\000\000\000\000\000\000\000\000\000\000\000\000\000\000\000\000\000\000\000\000\000\001\000\000\000\000\000\000\000\000\000\000\000\000\000\000\000\001\000\000\000\000\000\000\000\000\000\000\000\000\000\000\000\000\000\000\000\000\000\000\000\000\000\000\000\000\000\000\000\001\000\000\000\000\000\000\000\000\000\000\000\000\000\000\000\000\000\000\000\000\000\000\000\001\000\000\000\000\000\000\000\000\000\000\000\000\000\000\000\000\000\000\000\000\000\000\000\000\000\000\000\000\000\000\000\001\000\000\000\000\000\000\000\000\000\000\000\000\000\000\000\000\000\000\000\000\000\000\000\000\000\000\000\000\000\000\000\001\000\000\000\000\000\000\000\000\000\000\000\000\000\000\000\000\000\000\000\000\000\000\000\000\000\000\000\000\000\000\000\000\000\000\000\000\000\000\000\000\000\000\000\000\000\000\000\001\000\000\000\000\000\000\000\001\000\000\000\000\000\000\000\000\000\000\000\000\000\000\000\000\000\000\000\000\000\000\000\000\000\000\000\000\000\000\000\000\000\000\000\000\000\000\000\000\000\000\000\000\000\000\000\000\000\000\000\000\000\000\000\001\000\000\000\000\000\000\000\001\000\000\000\000\000\000\000\001\000\000\000\000\000\000\000\001\000\000\000\000\000\000\000\001\000\000\000\000\000\000\000\000\000\000\000\000\000\000\000\001\000\000\000\000\000\000\000\000\000\000\000\000\000\000\000\000\000\000\000\000\000\000\000\000\000\000\000\000\000\000\000\000\000\000\000\000\000\000\000\000\000\000\000\000\000\000\000\001\000\000\000\000\000\000\000\001\000\000\000\000\000\000\000\001\000\000\000\000\000\000\000\000\000\000\000\000\000\000\000\001\000\000\000\000\000\000\000\001\000\000\000\000\000\000\000\000\000\000\000\000\000\000\000\001\000\000\000\000\000\000\000\001\000\000\000\000\000\000\000\000\000\000\000\000\000\000\000\000\000\000\000\000\000\000\000\000\000\000\000\000\000\000\000\001\000\000\000\000\000\000\000\000\000\000\000\000\000\000\000\000\000\000\000\000\000\000\000\000\000\000\000\000\000\000\000\001\000\000\000\000\000\000\000\000\000\000\000\000\000\000\000\000\000\000\000\000\000\000\000\001\000\000\000\000\000\000\000\000\000\000\000\000\000\000\000\001\000\000\000\000\000\000\000\001\000\000\000\000\000\000\000\001\000\000\000\000\000\000\000\001\000\000\000\000\000\000\000\000\000\000\000\000\000\000\000\000\000\000\000\000\000\000\000\000\000\000\000\000\000\000\000\000\000\000\000\000\000\000\000\000\000\000\000\000\000\000\000\000\000\000\000\000\000\000\000\001\000\000\000\000\000\000\000\001\000\000\000\000\000\000\000\001\000\000\000\000\000\000\000\001\000\000\000\000\000\000\000\000\000\000\000\000\000\000\000\001\000\000\000\000\000\000\000\000\000\000\000\000\000\000\000\001\000\000\000\000\000\000\000\001\000\000\000\000\000\000\000\001\000\000\000\000\000\000\000\000\000\000\000\000\000\000\000\001\000\000\000\000\000\000\000\001\000\000\000\000\000\000\000\001\000\000\000\000\000\000\000\000\000\000\000\000\000\000\000\000\000\000\000\000\000\000\000\000\000\000\000\000\000\000\000\001\000\000\000\000\000\000\000\001\000\000\000\000\000\000\000\000\000\000\000\000\000\000\000\001\000\000\000\000\000\000\000\001\000\000\000\000\000\000\000\000\000\000\000\000\000\000\000\000\000\000\000\000\000\000\000\001\000\000\000\000\000\000\000\001\000\000\000\000\000\000\000\000\000\000\000\000\000\000\000\001\000\000\000\000\000\000\000\000\000\000\000\000\000\000\000\001\000\000\000\000\000\000\000\001\000\000\000\000\000\000\000\001\000\000\000\000\000\000\000\001\000\000\000\000\000\000\000\000\000\000\000\000\000\000\000\000\000\000\000\000\000\000\000\000\000\000\000\000\000\000\000\001\000\000\000\000\000\000\000\000\000\000\000\000\000\000\000\000\000\000\000\000\000\000\000\001\000\000\000\000\000\000\000\001\000\000\000\000\000\000\000\000\000\000\000\000\000\000\000\001\000\000\000\000\000\000\000\001\000\000\000\000\000\000\000\000\000\000\000\000\000\000\000\000\000\000\000\000\000\000\000\000\000\000\000\000\000\000\000\001\000\000\000\000\000\000\000\001\000\000\000\000\000\000\000\001\000\000\000\000\000\000\000\001\000\000\000\000\000\000\000\000\000\000\000\000\000\000\000\000\000\000\000\000\000\000\000\000\000\000\000\000\000\000\000\000\000\000\000\000\000\000\000\000\000\000\000\000\000\000\000\000\000\000\000\000\000\000\000\000\000\000\000\000\000\000\000\001\000\000\000\000\000\000\000\000\000\000\000\000\000\000\000\001\000\000\000\000\000\000\000\001\000\000\000\000\000\000\000\000\000\000\000\000\000\000\000\000\000\000\000\000\000\000\000\000\000\000\000\000\000\000\000\000\000\000\000\000\000\000\000\000\000\000\000\000\000\000\000\000\000\000\000\000\000\000\000\001\000\000\000\000\000\000\000\001\000\000\000\000\000\000\000\001\000\000\000\000\000\000\000\001\000\000\000\000\000\000\000\001\000\000\000\000\000\000\000\000\000\000\000\000\000\000\000\000\000\000\000\000\000\000\000\000\000\000\000\000\000\000\000\000\000\000\000\000\000\000\000\001\000\000\000\000\000\000\000\001\000\000\000\000\000\000\000\000\000\000\000\000\000\000\000\000\000\000\000\000\000\000\000\000\000\000\000\000\000\000\000\001\000\000\000\000\000\000\000\001\000\000\000\000\000\000\000\000\000\000\000\000\000\000\000\001\000\000\000\000\000\000\000\000\000\000\000\000\000\000\000\000\000\000\000\000\000\000\000\000\000\000\000\000\000\000\000\001\000\000\000\000\000\000\000\000\000\000\000\000\000\000\000\001\000\000\000\000\000\000\000\001\000\000\000\000\000\000\000\001\000\000\000\000\000\000\000\000\000\000\000\000\000\000\000\001\000\000\000\000\000\000\000\001\000\000\000\000\000\000\000\000\000\000\000\000\000\000\000\000\000\000\000\000\000\000\000\000\000\000\000\000\000\000\000\000\000\000\000\000\000\000\000\001\000\000\000\000\000\000\000\001\000\000\000\000\000\000\000\000\000\000\000\000\000\000\000\000\000\000\000\000\000\000\000\000\000\000\000\000\000\000\000\000\000\000\000\000\000\000\000\000\000\000\000\000\000\000\000\000\000\000\000\000\000\000\000\001\000\000\000\000\000\000\000\000\000\000\000\000\000\000\000\000\000\000\000\000\000\000\000\000\000\000\000\000\000\000\000\000\000\000\000\000\000\000\000\001\000\000\000\000\000\000\000\000\000\000\000\000\000\000\000\001\000\000\000\000\000\000\000\000\000\000\000\000\000\000\000\001\000\000\000\000\000\000\000\001\000\000\000\000\000\000\000\000\000\000\000\000\000\000\000\000\000\000\000\000\000\000\000\000\000\000\000\000\000\000\000\000\000\000\000\000\000\000\000\000\000\000\000\000\000\000\000\000\000\000\000\000\000\000\000\000\000\000\000\000\000\000\000\000\000\000\000\000\000\000\000\001\000\000\000\000\000\000\000\001\000\000\000\000\000\000\000\000\000\000\000\000\000\000\000\001\000\000\000\000\000\000\000\001\000\000\000\000\000\000\000\001\000\000\000\000\000\000\000\001\000\000\000\000\000\000\000\000\000\000\000\000\000\000\000\000\000\000\000\000\000\000\000\001\000\000\000\000\000\000\000\000\000\000\000\000\000\000\000\001\000\000\000\000\000\000\000\000\000\000\000\000\000\000\000\000\000\000\000\000\000\000\000\001\000\000\000\000\000\000\000\000\000\000\000\000\000\000\000\000\000\000\000\000\000\000\000\001\000\000\000\000\000\000\000\001\000\000\000\000\000\000\000\001\000\000\000\000\000\000\000\001\000\000\000\000\000\000\000\001\000\000\000\000\000\000\000\001\000\000\000\000\000\000\000\001\000\000\000\000\000\000\000\000\000\000\000\000\000\000\000\000\000\000\000\000\000\000\000\000\000\000\000\000\000\000\000\001\000\000\000\000\000\000\000\000\000\000\000\000\000\000\000\001\000\000\000\000\000\000\000\000\000\000\000\000\000\000\000\001\000\000\000\000\000\000\000\001\000\000\000\000\000\000\000\000\000\000\000\000\000\000\000\001\000\000\000\000\000\000\000\000\000\000\000\000\000\000\000\000\000\000\000\000\000\000\000\000\000\000\000\000\000\000\000\000\000\000\000\000\000\000\000\000\000\000\000\000\000\000\000\000\000\000\000\000\000\000\000\000\000\000\000\000\000\000\000\000\000\000\000\000\000\000\000\001\000\000\000\000\000\000\000\000\000\000\000\000\000\000\000\000\000\000\000\000\000\000\000\001\000\000\000\000\000\000\000\001\000\000\000\000\000\000\000\000\000\000\000\000\000\000\000\000\000\000\000\000\000\000\000\000\000\000\000\000\000\000\000\000\000\000\000\000\000\000\000\000\000\000\000\000\000\000\000\001\000\000\000\000\000\000\000\000\000\000\000\000\000\000\000\000\000\000\000\000\000\000\000\000\000\000\000\000\000\000\000\001\000\000\000\000\000\000\000\001\000\000\000\000\000\000\000\000\000\000\000\000\000\000\000\001\000\000\000\000\000\000\000\000\000\000\000\000\000\000\000\000\000\000\000\000\000\000\000\001\000\000\000\000\000\000\000\000\000\000\000\000\000\000\000\000\000\000\000\000\000\000\000\000\000\000\000\000\000\000\000\000\000\000\000\000\000\000\000\000\000\000\000\000\000\000\000\000\000\000\000\000\000\000\000\001\000\000\000\000\000\000\000\000\000\000\000\000\000\000\000\000\000\000\000\000\000\000\000\000\000\000\000\000\000\000\000\000\000\000\000\000\000\000\000\000\000\000\000\000\000\000\000\000\000\000\000\000\000\000\000\000\000\000\000\000\000\000\000\001\000\000\000\000\000\000\000\000\000\000\000\000\000\000\000\001\000\000\000\000\000\000\000\001\000\000\000\000\000\000\000\000\000\000\000\000\000\000\000\001\000\000\000\000\000\000\000\001\000\000\000\000\000\000\000\000\000\000\000\000\000\000\000\001\000\000\000\000\000\000\000\001\000\000\000\000\000\000\000\000\000\000\000\000\000\000\000\000\000\000\000\000\000\000\000\001\000\000\000\000\000\000\000\000\000\000\000\000\000\000\000\001\000\000\000\000\000\000\000\000\000\000\000\000\000\000\000\001\000\000\000\000\000\000\000\000\000\000\000\000\000\000\000\000\000\000\000\000\000\000\000\001\000\000\000\000\000\000\000\000\000\000\000\000\000\000\000\000\000\000\000\000\000\000\000\001\000\000\000\000\000\000\000\000\000\000\000\000\000\000\000\000\000\000\000\000\000\000\000\000\000\000\000\000\000\000\000\001\000\000\000\000\000\000\000\000\000\000\000\000\000\000\000\000\000\000\000\000\000\000\000\001\000\000\000\000\000\000\000\000\000\000\000\000\000\000\000\001\000\000\000\000\000\000\000\000\000\000\000\000\000\000\000\001\000\000\000\000\000\000\000\000\000\000\000\000\000\000\000\001\000\000\000\000\000\000\000\001\000\000\000\000\000\000\000\000\000\000\000\000\000\000\000\000\000\000\000\000\000\000\000\001\000\000\000\000\000\000\000\000\000\000\000\000\000\000\000\000\000\000\000\000\000\000\000\001\000\000\000\000\000\000\000\001\000\000\000\000\000\000\000\000\000\000\000\000\000\000\000\001\000\000\000\000\000\000\000\001\000\000\000\000\000\000\000\000\000\000\000\000\000\000\000\000\000\000\000\000\000\000\000\001\000\000\000\000\000\000\000\001\000\000\000\000\000\000\000\000\000\000\000\000\000\000\000\001\000\000\000\000\000\000\000\000\000\000\000\000\000\000\000\001\000\000\000\000\000\000\000\001\000\000\000\000\000\000\000\000\000\000\000\000\000\000\000\000\000\000\000\000\000\000\000\000\000\000\000\000\000\000\000\000\000\000\000\000\000\000\000\000\000\000\000\000\000\000\000\000\000\000\000\000\000\000\000\000\000\000\000\000\000\000\000\000\000\000\000\000\000\000\000\000\000\000\000\000\000\000\000\001\000\000\000\000\000\000\000\001\000\000\000\000\000\000\000\001\000\000\000\000\000\000\000\001\000\000\000\000\000\000\000\001\000\000\000\000\000\000\000\000\000\000\000\000\000\000\000\000\000\000\000\000\000\000\000\001\000\000\000\000\000\000\000\001\000\000\000\000\000\000\000\000\000\000\000\000\000\000\000\001\000\000\000\000\000\000\000\001\000\000\000\000\000\000\000\001\000\000\000\000\000\000\000\000\000\000\000\000\000\000\000\000\000\000\000\000\000\000\000\000\000\000\000\000\000\000\000\001\000\000\000\000\000\000\000\000\000\000\000\000\000\000\000\001\000\000\000\000\000\000\000\000\000\000\000\000\000\000\000\000\000\000\000\000\000\000\000\000\000\000\000\000\000\000\000\001\000\000\000\000\000\000\000\000\000\000\000\000\000\000\000\000\000\000\000\000\000\000\000\000\000\000\000\000\000\000\000\000\000\000\000\000\000\000\000\001\000\000\000\000\000\000\000\000\000\000\000\000\000\000\000\000\000\000\000\000\000\000\000\001\000\000\000\000\000\000\000\001\000\000\000\000\000\000\000\000\000\000\000\000\000\000\000\000\000\000\000\000\000\000\000\000\000\000\000\000\000\000\000\001\000\000\000\000\000\000\000\000\000\000\000\000\000\000\000\000\000\000\000\000\000\000\000\001\000\000\000\000\000\000\000\001\000\000\000\000\000\000\000\001\000\000\000\000\000\000\000\000\000\000\000\000\000\000\000\000\000\000\000\000\000\000\000\001\000\000\000\000\000\000\000\000\000\000\000\000\000\000\000\000\000\000\000\000\000\000\000\001\000\000\000\000\000\000\000\000\000\000\000\000\000\000\000\000\000\000\000\000\000\000\000\001\000\000\000\000\000\000\000\000\000\000\000\000\000\000\000\000\000\000\000\000\000\000\000\001\000\000\000\000\000\000\000\001\000\000\000\000\000\000\000\000\000\000\000\000\000\000\000"
      }
    }
  }
}
node {
  name: "batch_size"
  op: "Const"
  device: "/device:CPU:0"
  attr {
    key: "_output_shapes"
    value {
      list {
        shape {
        }
      }
    }
  }
  attr {
    key: "dtype"
    value {
      type: DT_INT64
    }
  }
  attr {
    key: "value"
    value {
      tensor {
        dtype: DT_INT64
        tensor_shape {
        }
        int64_val: 70
      }
    }
  }
}
node {
  name: "drop_remainder"
  op: "Const"
  device: "/device:CPU:0"
  attr {
    key: "_output_shapes"
    value {
      list {
        shape {
        }
      }
    }
  }
  attr {
    key: "dtype"
    value {
      type: DT_BOOL
    }
  }
  attr {
    key: "value"
    value {
      tensor {
        dtype: DT_BOOL
        tensor_shape {
        }
        bool_val: false
      }
    }
  }
}
node {
  name: "count"
  op: "Const"
  device: "/device:CPU:0"
  attr {
    key: "_output_shapes"
    value {
      list {
        shape {
        }
      }
    }
  }
  attr {
    key: "dtype"
    value {
      type: DT_INT64
    }
  }
  attr {
    key: "value"
    value {
      tensor {
        dtype: DT_INT64
        tensor_shape {
        }
        int64_val: -1
      }
    }
  }
}
node {
  name: "buffer_size"
  op: "Const"
  device: "/device:CPU:0"
  attr {
    key: "_output_shapes"
    value {
      list {
        shape {
        }
      }
    }
  }
  attr {
    key: "dtype"
    value {
      type: DT_INT64
    }
  }
  attr {
    key: "value"
    value {
      tensor {
        dtype: DT_INT64
        tensor_shape {
        }
        int64_val: 10000
      }
    }
  }
}
node {
  name: "seed"
  op: "Const"
  device: "/device:CPU:0"
  attr {
    key: "_output_shapes"
    value {
      list {
        shape {
        }
      }
    }
  }
  attr {
    key: "dtype"
    value {
      type: DT_INT64
    }
  }
  attr {
    key: "value"
    value {
      tensor {
        dtype: DT_INT64
        tensor_shape {
        }
        int64_val: 0
      }
    }
  }
}
node {
  name: "seed2"
  op: "Const"
  device: "/device:CPU:0"
  attr {
    key: "_output_shapes"
    value {
      list {
        shape {
        }
      }
    }
  }
  attr {
    key: "dtype"
    value {
      type: DT_INT64
    }
  }
  attr {
    key: "value"
    value {
      tensor {
        dtype: DT_INT64
        tensor_shape {
        }
        int64_val: 0
      }
    }
  }
}
node {
  name: "OneShotIterator"
  op: "OneShotIterator"
  device: "/device:CPU:0"
  attr {
    key: "_output_shapes"
    value {
      list {
        shape {
        }
      }
    }
  }
  attr {
    key: "container"
    value {
      s: ""
    }
  }
  attr {
    key: "dataset_factory"
    value {
      func {
        name: "_make_dataset_EctKFvEqalI"
      }
    }
  }
  attr {
    key: "output_shapes"
    value {
      list {
        shape {
          dim {
            size: -1
          }
        }
        shape {
          dim {
            size: -1
          }
        }
        shape {
          dim {
            size: -1
          }
        }
        shape {
          dim {
            size: -1
          }
        }
      }
    }
  }
  attr {
    key: "output_types"
    value {
      list {
        type: DT_DOUBLE
        type: DT_INT64
        type: DT_INT64
        type: DT_INT64
      }
    }
  }
  attr {
    key: "shared_name"
    value {
      s: ""
    }
  }
}
node {
  name: "IteratorToStringHandle"
  op: "IteratorToStringHandle"
  input: "OneShotIterator"
  device: "/device:CPU:0"
  attr {
    key: "_output_shapes"
    value {
      list {
        shape {
        }
      }
    }
  }
}
node {
  name: "IteratorGetNext"
  op: "IteratorGetNext"
  input: "OneShotIterator"
  device: "/device:CPU:0"
  attr {
    key: "_output_shapes"
    value {
      list {
        shape {
          dim {
            size: -1
          }
        }
        shape {
          dim {
            size: -1
          }
        }
        shape {
          dim {
            size: -1
          }
        }
        shape {
          dim {
            size: -1
          }
        }
      }
    }
  }
  attr {
    key: "output_shapes"
    value {
      list {
        shape {
          dim {
            size: -1
          }
        }
        shape {
          dim {
            size: -1
          }
        }
        shape {
          dim {
            size: -1
          }
        }
        shape {
          dim {
            size: -1
          }
        }
      }
    }
  }
  attr {
    key: "output_types"
    value {
      list {
        type: DT_DOUBLE
        type: DT_INT64
        type: DT_INT64
        type: DT_INT64
      }
    }
  }
}
node {
  name: "linear/linear_model/Gender/weights/part_0/Initializer/zeros"
  op: "Const"
  attr {
    key: "_class"
    value {
      list {
        s: "loc:@linear/linear_model/Gender/weights/part_0"
      }
    }
  }
  attr {
    key: "_output_shapes"
    value {
      list {
        shape {
          dim {
            size: 1
          }
          dim {
            size: 1
          }
        }
      }
    }
  }
  attr {
    key: "dtype"
    value {
      type: DT_FLOAT
    }
  }
  attr {
    key: "value"
    value {
      tensor {
        dtype: DT_FLOAT
        tensor_shape {
          dim {
            size: 1
          }
          dim {
            size: 1
          }
        }
        float_val: 0.0
      }
    }
  }
}
node {
  name: "linear/linear_model/Gender/weights/part_0"
  op: "VarHandleOp"
  attr {
    key: "_class"
    value {
      list {
        s: "loc:@linear/linear_model/Gender/weights/part_0"
      }
    }
  }
  attr {
    key: "_output_shapes"
    value {
      list {
        shape {
        }
      }
    }
  }
  attr {
    key: "container"
    value {
      s: ""
    }
  }
  attr {
    key: "dtype"
    value {
      type: DT_FLOAT
    }
  }
  attr {
    key: "shape"
    value {
      shape {
        dim {
          size: 1
        }
        dim {
          size: 1
        }
      }
    }
  }
  attr {
    key: "shared_name"
    value {
      s: "linear/linear_model/Gender/weights/part_0"
    }
  }
}
node {
  name: "linear/linear_model/Gender/weights/part_0/IsInitialized/VarIsInitializedOp"
  op: "VarIsInitializedOp"
  input: "linear/linear_model/Gender/weights/part_0"
  attr {
    key: "_output_shapes"
    value {
      list {
        shape {
        }
      }
    }
  }
}
node {
  name: "linear/linear_model/Gender/weights/part_0/Assign"
  op: "AssignVariableOp"
  input: "linear/linear_model/Gender/weights/part_0"
  input: "linear/linear_model/Gender/weights/part_0/Initializer/zeros"
  attr {
    key: "_class"
    value {
      list {
        s: "loc:@linear/linear_model/Gender/weights/part_0"
      }
    }
  }
  attr {
    key: "dtype"
    value {
      type: DT_FLOAT
    }
  }
}
node {
  name: "linear/linear_model/Gender/weights/part_0/Read/ReadVariableOp"
  op: "ReadVariableOp"
  input: "linear/linear_model/Gender/weights/part_0"
  attr {
    key: "_class"
    value {
      list {
        s: "loc:@linear/linear_model/Gender/weights/part_0"
      }
    }
  }
  attr {
    key: "_output_shapes"
    value {
      list {
        shape {
          dim {
            size: 1
          }
          dim {
            size: 1
          }
        }
      }
    }
  }
  attr {
    key: "dtype"
    value {
      type: DT_FLOAT
    }
  }
}
node {
  name: "linear/linear_model/linear_model/Gender/ExpandDims/dim"
  op: "Const"
  attr {
    key: "_output_shapes"
    value {
      list {
        shape {
        }
      }
    }
  }
  attr {
    key: "dtype"
    value {
      type: DT_INT32
    }
  }
  attr {
    key: "value"
    value {
      tensor {
        dtype: DT_INT32
        tensor_shape {
        }
        int_val: -1
      }
    }
  }
}
node {
  name: "linear/linear_model/linear_model/Gender/ExpandDims"
  op: "ExpandDims"
  input: "IteratorGetNext:1"
  input: "linear/linear_model/linear_model/Gender/ExpandDims/dim"
  attr {
    key: "T"
    value {
      type: DT_INT64
    }
  }
  attr {
    key: "Tdim"
    value {
      type: DT_INT32
    }
  }
  attr {
    key: "_output_shapes"
    value {
      list {
        shape {
          dim {
            size: -1
          }
          dim {
            size: 1
          }
        }
      }
    }
  }
}
node {
  name: "linear/linear_model/linear_model/Gender/ToFloat"
  op: "Cast"
  input: "linear/linear_model/linear_model/Gender/ExpandDims"
  attr {
    key: "DstT"
    value {
      type: DT_FLOAT
    }
  }
  attr {
    key: "SrcT"
    value {
      type: DT_INT64
    }
  }
  attr {
    key: "Truncate"
    value {
      b: false
    }
  }
  attr {
    key: "_output_shapes"
    value {
      list {
        shape {
          dim {
            size: -1
          }
          dim {
            size: 1
          }
        }
      }
    }
  }
}
node {
  name: "linear/linear_model/linear_model/Gender/Shape"
  op: "Shape"
  input: "linear/linear_model/linear_model/Gender/ToFloat"
  attr {
    key: "T"
    value {
      type: DT_FLOAT
    }
  }
  attr {
    key: "_output_shapes"
    value {
      list {
        shape {
          dim {
            size: 2
          }
        }
      }
    }
  }
  attr {
    key: "out_type"
    value {
      type: DT_INT32
    }
  }
}
node {
  name: "linear/linear_model/linear_model/Gender/strided_slice/stack"
  op: "Const"
  attr {
    key: "_output_shapes"
    value {
      list {
        shape {
          dim {
            size: 1
          }
        }
      }
    }
  }
  attr {
    key: "dtype"
    value {
      type: DT_INT32
    }
  }
  attr {
    key: "value"
    value {
      tensor {
        dtype: DT_INT32
        tensor_shape {
          dim {
            size: 1
          }
        }
        int_val: 0
      }
    }
  }
}
node {
  name: "linear/linear_model/linear_model/Gender/strided_slice/stack_1"
  op: "Const"
  attr {
    key: "_output_shapes"
    value {
      list {
        shape {
          dim {
            size: 1
          }
        }
      }
    }
  }
  attr {
    key: "dtype"
    value {
      type: DT_INT32
    }
  }
  attr {
    key: "value"
    value {
      tensor {
        dtype: DT_INT32
        tensor_shape {
          dim {
            size: 1
          }
        }
        int_val: 1
      }
    }
  }
}
node {
  name: "linear/linear_model/linear_model/Gender/strided_slice/stack_2"
  op: "Const"
  attr {
    key: "_output_shapes"
    value {
      list {
        shape {
          dim {
            size: 1
          }
        }
      }
    }
  }
  attr {
    key: "dtype"
    value {
      type: DT_INT32
    }
  }
  attr {
    key: "value"
    value {
      tensor {
        dtype: DT_INT32
        tensor_shape {
          dim {
            size: 1
          }
        }
        int_val: 1
      }
    }
  }
}
node {
  name: "linear/linear_model/linear_model/Gender/strided_slice"
  op: "StridedSlice"
  input: "linear/linear_model/linear_model/Gender/Shape"
  input: "linear/linear_model/linear_model/Gender/strided_slice/stack"
  input: "linear/linear_model/linear_model/Gender/strided_slice/stack_1"
  input: "linear/linear_model/linear_model/Gender/strided_slice/stack_2"
  attr {
    key: "Index"
    value {
      type: DT_INT32
    }
  }
  attr {
    key: "T"
    value {
      type: DT_INT32
    }
  }
  attr {
    key: "_output_shapes"
    value {
      list {
        shape {
        }
      }
    }
  }
  attr {
    key: "begin_mask"
    value {
      i: 0
    }
  }
  attr {
    key: "ellipsis_mask"
    value {
      i: 0
    }
  }
  attr {
    key: "end_mask"
    value {
      i: 0
    }
  }
  attr {
    key: "new_axis_mask"
    value {
      i: 0
    }
  }
  attr {
    key: "shrink_axis_mask"
    value {
      i: 1
    }
  }
}
node {
  name: "linear/linear_model/linear_model/Gender/Reshape/shape/1"
  op: "Const"
  attr {
    key: "_output_shapes"
    value {
      list {
        shape {
        }
      }
    }
  }
  attr {
    key: "dtype"
    value {
      type: DT_INT32
    }
  }
  attr {
    key: "value"
    value {
      tensor {
        dtype: DT_INT32
        tensor_shape {
        }
        int_val: 1
      }
    }
  }
}
node {
  name: "linear/linear_model/linear_model/Gender/Reshape/shape"
  op: "Pack"
  input: "linear/linear_model/linear_model/Gender/strided_slice"
  input: "linear/linear_model/linear_model/Gender/Reshape/shape/1"
  attr {
    key: "N"
    value {
      i: 2
    }
  }
  attr {
    key: "T"
    value {
      type: DT_INT32
    }
  }
  attr {
    key: "_output_shapes"
    value {
      list {
        shape {
          dim {
            size: 2
          }
        }
      }
    }
  }
  attr {
    key: "axis"
    value {
      i: 0
    }
  }
}
node {
  name: "linear/linear_model/linear_model/Gender/Reshape"
  op: "Reshape"
  input: "linear/linear_model/linear_model/Gender/ToFloat"
  input: "linear/linear_model/linear_model/Gender/Reshape/shape"
  attr {
    key: "T"
    value {
      type: DT_FLOAT
    }
  }
  attr {
    key: "Tshape"
    value {
      type: DT_INT32
    }
  }
  attr {
    key: "_output_shapes"
    value {
      list {
        shape {
          dim {
            size: -1
          }
          dim {
            size: 1
          }
        }
      }
    }
  }
}
node {
  name: "linear/linear_model/Gender/weights/ReadVariableOp"
  op: "ReadVariableOp"
  input: "linear/linear_model/Gender/weights/part_0"
  attr {
    key: "_output_shapes"
    value {
      list {
        shape {
          dim {
            size: 1
          }
          dim {
            size: 1
          }
        }
      }
    }
  }
  attr {
    key: "dtype"
    value {
      type: DT_FLOAT
    }
  }
}
node {
  name: "linear/linear_model/Gender/weights"
  op: "Identity"
  input: "linear/linear_model/Gender/weights/ReadVariableOp"
  attr {
    key: "T"
    value {
      type: DT_FLOAT
    }
  }
  attr {
    key: "_output_shapes"
    value {
      list {
        shape {
          dim {
            size: 1
          }
          dim {
            size: 1
          }
        }
      }
    }
  }
}
node {
  name: "linear/linear_model/linear_model/Gender/weighted_sum"
  op: "MatMul"
  input: "linear/linear_model/linear_model/Gender/Reshape"
  input: "linear/linear_model/Gender/weights"
  attr {
    key: "T"
    value {
      type: DT_FLOAT
    }
  }
  attr {
    key: "_output_shapes"
    value {
      list {
        shape {
          dim {
            size: -1
          }
          dim {
            size: 1
          }
        }
      }
    }
  }
  attr {
    key: "transpose_a"
    value {
      b: false
    }
  }
  attr {
    key: "transpose_b"
    value {
      b: false
    }
  }
}
node {
  name: "linear/linear_model/Pclass/weights/part_0/Initializer/zeros"
  op: "Const"
  attr {
    key: "_class"
    value {
      list {
        s: "loc:@linear/linear_model/Pclass/weights/part_0"
      }
    }
  }
  attr {
    key: "_output_shapes"
    value {
      list {
        shape {
          dim {
            size: 1
          }
          dim {
            size: 1
          }
        }
      }
    }
  }
  attr {
    key: "dtype"
    value {
      type: DT_FLOAT
    }
  }
  attr {
    key: "value"
    value {
      tensor {
        dtype: DT_FLOAT
        tensor_shape {
          dim {
            size: 1
          }
          dim {
            size: 1
          }
        }
        float_val: 0.0
      }
    }
  }
}
node {
  name: "linear/linear_model/Pclass/weights/part_0"
  op: "VarHandleOp"
  attr {
    key: "_class"
    value {
